/**
 * Baked CNN weights for digit-oracle, trained OFFLINE by digit-oracle.train.ts on the
 * REAL MNIST dataset. Generated; do not edit by hand.
 *
 * Architecture (the GPU compute demo mirrors this exactly):
 *   input 1x28x28
 *   conv3x3 1->8 (pad 1) -> ReLU -> maxpool2x2  => 8x14x14
 *   conv3x3 8->16 (pad 1) -> ReLU -> maxpool2x2  => 16x7x7
 *   flatten(784) -> FC -> 10 -> softmax
 *
 * WEIGHTS_B64 is raw little-endian Float32, concatenated in this order:
 *   w1[8*1*3*3], b1[8],
 *   w2[16*8*3*3], b2[16],
 *   wf[10*784], bf[10].
 * REF{3,7,5,8}_B64 are pre-classified 28x28 MNIST TEST glyphs (Float32 length 784).
 */
export const GRID = 28;
export const C1 = 8;
export const C2 = 16;
export const K = 3;
export const PAD = 1;
export const FC_IN = 784;
export const N_OUT = 10;
export const MNIST_TEST_ACC = 98.83;
export const WEIGHTS_B64 =
  'O2KPvcQjoD6pAce+ebPMvZtp8r5f9AY+G2I4vjrNB77AKyU+p9ElP7BZZb6Nmou+eI/QvV7JZr6rZ7o+ciLYv52OeD7sBaQ/EiYTP23cjj8tQrW/uNRHvnN7XD9GXoE+W/tuvqoV0D5kwis/WXesvnxPkb8eWWq/9QYZPxC0F78jrAq+yG07P5Cuij9DNlQ/kXwWvzYWE78c+2E+Cac7v4oZs73PySg/xxbVu+ptNT+iP0A/wOkQv8uNpr1FdS4/OGoyv80VNr+f9Vc/cXv2Pu7/pb+kWy8+0P7RP8T2mr0YgxS/pCJePuJJT79cWOO+VAVrv1H7Jb9BdY2+yDWpPrnbWT9uSF8/QxI1v86hnj577Vc+mNFov6g1kb9lrVu/qmn9vTcBh77KEH2/8EPavY8l6r2hWhG8/D+iu6bKrD1You69NRQGvl3RKD6ebsW9tWMpPrD1Ub0bAA6+qWm5PFjDO7x0tlu++BiKvMzYkT6wUnk89IyVPsVMFb4qu3A9BzihvfPu0j3291q+dcCcvve60L057Zk9tMwyvo4pTL4HCCo9hV5EPiDUqD0y9iS+qZgIvmFyOD6m2+U81qUdPtlEib4ghM8+nODrvlpNDz7oIVu+wXGDPk6juz5vPNC9BWPzPsp3I75l0U0+/I8LPgY8oL4bNIi9eX6cvUmhiL7sYkU93pYBPYAWOr45rnu+70kDvznaV75ObSQ9cUftvserK73D/zi9Rgtju42g7z1W+/a+HLFuPsOYMT7r/DC+vu9jPGL2gr6BghE9k2MDv6ti4b12a9++1sH4vkpdv769vtM9FuPEPQCMDj3tT0y+eZjvPU00UT24cYM8DeH0vUsBYT6juhO+CRWHPv7OTL0btru+nCgzvsGm+z2N6U0824CVPIjdTr4Q8Qm/njK+vlasJL4pzha++ywSvfnZlb72+7U+Xz9VP3XyQz6+c1O97E3FvuNWo74aKuQ+w6WKOrJFjj4R4eu9SFTQPd92rD6o+NU+s4XDPoQIyT2FiN87vwnfvc4bqb1+Mqy+lV3wvktWNb3Sx7i9JG6IvDDmOL7BSIs8mAeLO+25YT4LgCa9+ZfkO9k9LD2nk8E+16D9PlTjbD4dARe+av1iPRDJhj6OCzi+K67DvhY/C7+/Kou99WspvuhxQL0e9MS+9aQwvjbBI71pvZ8+d57ZvWYIgb6oFQ0++Su3vvRK5T3UXZg9dFV6PlMr3bxSbB896YKgvTY1jT4uHze8UXNYvn0vSD25Ldm8NcHXvk47B75jPEa+rnvVvhQXPb3Zfna+XMBMPW1K1b00trK+PZVkvj7t2ryuGyw+CjlCPqpY8D4+H169L76mvirCcb0tx2g9Fd6FPJoWFT6YxcA+NIEFPlaH2z6cJKQ9au50voV3SL5u5fo8klfGPcJEPL24aIo+/9hbPkM9tz3xfr49CzqoPSHfOz6Mn3I+sjh2vUC5YD58rJG++3QUvcSe9j2ofry+prgZvme6173ShjK+ce5cPSqkZT5k1ZW+ApwCvkWZtLsN0IS+NBvRvqd0f77bA9+9RFssvLG6rb7kale+KfrRPLaSJ7vZRFm+9xrDPltgQb6LtbA9u510PMVprr64g3u9g+sPvlLxrLzka32+D2V8PmAqgDxEKju7AhZgPYLZNL6XxTK+r/Apvuyxi77lPp6+UgCQvgLkdD3iO6C9Yr7TveIvgr4nIZW+ru2Bvnvurr74TqA9dXQ6PfpsEb5+aj0+3WiIum79yr76Ee27X9OSvcWffr4xP4k9iGu3PvILsr6GYh4+MUjSPpHYtb6bwua+qBe7vj1ETb7XVim+9cJaPRN8yD05tN69E7mlPs6hp75l8dq9mL3nvFRUBT66mgy+9wyAvht4aT5kGB2+WyudPZUztj4yMVY+St8DP1h9tj7xfMa8XnyJOi3Tl77rhi2+TQrQPU3fhj3jxyc/qifIPUCs8L2nKtm6hEunPQzIMD7wNqi9se9nPY8n9jw7TSo+Wi6GvdGHSD5flum8cAOEviGxij2eDQ6+yrWGPaGdR750OYG++GEwvivPNr6N60m8bkzlPRUxdb5xK529H9kwvuzj3jzE62u9+eQCvRzY5Lw+N5Q9pslTvvvFY76jO4w+siJcvlzwEL3EL829A3elO03Nqb7ADUG+0FeMPa+DmL76e+k7eC4cvig1bT37n7g9AcGgvvQjFz7dVhq9PYdwPWBwH77pLUY+0igVPWYZ6D1o5vu9/WV0viYsUb7+blW+pRIvvtVpMz48Qjo+AosIvsCsNj6PXmY/x5Iavs+0Qj1ZWBy+tl5ovrmbd766L6w9TjfdvUNNdj7Pcis+FvGxvnUuS74o/wO9Dz0GvXz8Bb6ZHzW+EdMHvjg/Kb77FmY9sJ4TPr4F4DycMbI8gROJPV73/z0RSfo8GwQLvoILWD511Jm+H5aivu2vTzoa5N09LzvWvt504D7LeAK+u1OfvmS87z7D9T09pBTvvlHl4T7Y3OK+SM5VvjoGGr6IovY9x+wkvgyxvT3NLL0+wY3APTZuvb77wse+YHyCO4lpbr3GBKG+JquIPYsjrj25I4m+CRWuvkolbT5Hyqk+wYazPvwtSD1KRyM9J84OPt8+pz2/vMa9cfBQPgxdqz4tajK+EFeAvWXWoL7zlFC+pZlivllENL4AZM69B1WpvcWjSb58LXW9Srf6PZZJQr43r4e9+USKPesHvr3pkxm+xJESvnEDbL2HExS9sYYUvv0brruOsR28DdOFPGARD77Yqg8+SWxSPUSfFj1qnju9PmTavd2bXL4yw6g+KHEAvjGufz2K87c+FxVpvo+uZb13E/q9j8fCPgWwuT4/HYa+CrhzPnSnGT68Fxq+AchOPgLYqb1WRJ6+yT5Xv43Grb421AO+lJ69vqLV/j5WXAi/CI7CvS1HBj7P5FA+JcGWvXuMpL4pDf0+Nd0ovkDtAr+EInM+tfH5vZcpq746wvg+t/KrPi/zlb4j5Ws9vyPIPpcYNr4zztk+bJhIPqLYGb29bK6+R4EcPoZwYT6oDde9+2XYuyCWAL4d7c6++8upvdW88D2pU4e8dx+fvlLQsr58aHu+4YM9vqDjWr7/oNe+VpsrvsoHlT4tySE9PHCVvNpLBz3UnT49QHi3PZKHwjvZuPM9TRCSvWbrbT5PjY89Ev+ZPsfHdD0jlt087QjnvatefbwUM3a+whJEPA1AYb5A6BK+lkJwvnY9Br1S4X6+CvMRvmLdDr70U8I9uCcavjyetb5iz7e+rOYRvwQ7/L6gKg29so0Ivkcnf765iJM+32/dPYJdOD59H8W9NIO0PkJ7Db7AxDi+SaBGvvfbvzy9vP49gS8yvuG+vL7j9yy9jPgRP5jsWD5DBji8hivGPtTjMD7A10K+m09jvkTipb1RLJw+pPx+vjPWkDngUts9z3BNvhJ44z1ywr28iatmvbhl9r096FQ9/ZBtvphyUTvDyqS+DeHqPkJbCT+2AEO+SqX2PYMkuD4kPYG9s7tmPvH7qTyJJh6+FOwAPZ6rBTwjH3U9i9KkPFvtxj1IgmS8ERejva4xxD0+Ftg+CcWIPjDUij3+V7W8VQlgPlp3+z75as69WV57vv7AnL6TY00+gL2VPTdkg77dXRW/aPNgPn1Svz75zdo8UlGAPuDCgz5wf8k9geC8u/jns75wM5K+6LwTPZI+yrxkW4A896OaPTqJOj3cV2w7CPJIvU39Ur5JXGu+4OS6vSwDBz1/PbS+V06uvkoeib7vlwm+7TCeukI7AbxdtZ4+35euPQUzybwGBhY+hNaMvhC1er0JVha9jqdHvukTWb6sVjQ+aB47vibn477HCj2+3aBQvi6RN77DHaI+ZoPhvBCzsb4ZspI+R6DCPluX3r3Zs+m93OVAvnEXRj66LF++kXOdPcGDqj3+bHe9jo0LPmJmJr3yXie+2g+lvjGZnr5YxQE+4ESTPgoJTT4qBxg/6gLePcYGE75TO5q+ci4Ov4Idiz0I4gy/08sbvsilDzxx+7C9sUNkPlB6KL6k0om9SxX/vQEU/r12lqC+LzSQPkAD+D4a6I2+wSQGPmhpYDuRL3++1beovnwkEb8MwXy+Ejd1PDZYOz5qLdU+0z2SPfkBn76H8309CqaMPaI1yjwVYhS+pnD4vFJzPD6vCIg9Yg9lPlwLF73hPsg9ttQCvSeuXj0mtgC+/ZGuPJFqyr4RxXK+y8TWPPxwLL6ymhk+QEi+PvbVKD6mI+O79HmMvWi/CL60Fw2/ZwaxPFHgJz5UWrI+pxWFPmyYzz3VAjY9Vk2XvETpFz0+GSu9/JgqPgP02rvUpLC9hugRvWKynz4eMB++5iEuPI5gt76zYne+5oK0vjHylT77Isw+B4QvPa9HBD/S+g2+yTu8PlsX9L5ukVi+dYPtvslVNL9vZEK7FeuLPVmnoj7B3Ce/bzkcPgdSkDwab4c+1cMsPhBsJL18XhS+XPUfvsDQmj7+ZjW/iNzkPZQO9T0HaBq/q5tAv+xwvb5CzV8+ikCBPUFIWb68G2M+h8zZPKB1P70s3gc+E+eFvQf/yb7QuoS+daWBvtZi3b6iPBi9umUsPjRH3T2QCIq+AmfVvgkU/b2wg1K+2YGsvpi1mL2llhA+2BuWPq10Pz76svI9mooQP0qHiz1z0407vmGBvcAFML5b7t49C9LjPVNQLj7PeCE+VV/IPYSdDT5hq7C9CSJKvpCzE76j4tK+wzxmvR5SED3g+J69yBFAPZndcT7NncM9XYBcPeyan764J7Q+rp3YPiA64L7jPbc+5327vXsnm75ubxO+sK+wvds60L1EkJy+86OpvlcTSr71Z56+MFVZvrAPpL5kvhA/ksnyvvLJBL/fcjY+/QpHvh2YLD6xD62+jTikvja0BT5Aaxa90A5rPEDwub2YDiU+/kwgvjOSZD1SSWq9N71BPvO+B72jUDG+d5MEPn+N7DwRhjo8g1QcP2z3Oj5kDJs+udalPk3V1bxqmai+LbePvtNu+71PMJm9tybsvWLaer7Ko/o9I74IvlEdhL4Gd+S97lupvZPKK77gl3O9yP4NPiFNyr21ggG+psvUPccGtr1upem+nkJmvTNyAr8X6Ye+x+IxvucFkj0KQMO9TPrXPAH+Zr3cx5u9N0W2vhRiEb9w7uw9+IZdvqGhjb7KLpu9WZZEPo1Gnb6+0Mm+5o1xPhRaXL1AZ1s+fqHUPoreBz7DIqQ9q6yYviDtmL5BY5G9bzK0vpGbY76Xiik+1GakPdU6Qr2LC4e+oMW+veSRST0ShkS+9FUtvmWYqr0O6KW97EEVPVGz/D3KI0G+wRAdPlrH1TwsU1g+ecWdu/iMsrwLUA2+aPWlvn9/Mr1ZOYU+wM9+Pn3V4T65bSW+r1mMvhEbob75eYA9uHeUvq2F273zNxg/mU/8PrqnmT2efPE9DeiCvN0WGD7ekra8vsd1vRASurzEBPA9TqEAPltxWz5FZ1C+DFepvj5Jsb0cXdG+QRNpvR9vmT4Mqf8+yC/3vdtH+z6bng2+oYQzvi7ptb5wuGK85CPIvvUQl74Lcc8+13HZvjiipzqGI1o9GRKmO38a/72z0pI+2zSIvuMrkbyEw8c+3/j5vZw1374kRf+9RR3rvS7eNL577Oy+Gmygvq2ii73zJ50+U6n1vhNpjT7vkSo+HRyGPmVlAL6FB/w8U6NZvpEr1j0unRM+6nAmP02jdT4qJC89iaDzPfEeqj5qHQK/JxCWPvIkBD6osOq+tdSzvj0EUz2WyQU/QrsBvpCx2r2Erbk+Mf/CPdRNR75FjJq96lC7vYx7577kwEg9h2HJvM93N74cPtg9fLFTvVnyxb2NczA9Whq+vkHlK7yk2TY+KvdDvYACOj4RG/69J/jNPb9dBr7RzP+9SJcHvpK7yj3pYNs9q12kvdAO2b7zPPe+OUvpPuv57j5v7Ri/E1qjPXsEDD9Kkki/CIhovozBKL5Ae0m//wyRvhOGYT8p2nS8EAGNvgRdSj69fr88vGxNPlCFfD4h0WK+/LpeviSRHL77N/C9/syPvaZgjr4s5Bs+VjhpPgy3qzyx26o+8eyxPkSNsLwdxg2+dgI6PfFHgLvBxLY9R0XlvbsXiT4RqYW+Yiv8vvaCkb4TRpq+f4Wovuplx74I+Z++C5m5vos7Gj5l5jE+TVRGvqSkgr6gI84+MOI3Pr/fVr7Ue929WkmnPa2aiT3BzQQ8tFQAvi9JwT7sSLm93KwnvTJJ8L0x1Iu+MdV3vtVzaD4hX4u+BdpmPH+e0D5hqVM+OgPAPrWKg74OLQk98vWivmvZYb5IEwc9enlsvqFfvr6j3g6/vTVivUWcg74mAyM+1WJMvh3M5D26xge+DwW4PcMBNT3uI/y+6PbJvRQqXr58zg+/q8/Cvg2zzrsCame+3c15PpAe9D6h/6y9JD60PuDOOL3i/Vq956EovqHgP70PmOy9apcCPqGDrb6Boh2+yUaXvn/Kx77o+o+9Y7ZwvsxUjL4/OeA+XANTvuCdPj1ifCs+5lRqOw5TnT5u1tS7FA++u2BARb07n6c+AW1JvkqHCr0ycri+E1quvuvfs768EM6+J4E9vwNR9r5RKJO+smqlPGclTrz+hGI8JSPbvSZtU7+yuoO+82sDvbx7kj32JIy+9iiEvYii1L7Aq0A9+DcSvNDYOL2ICTi+4yUIvsHpEz2W+GS91UE9Ostk+r0GQ8e8jbkSPcyKDD4xuLo8/kXvvam6wL0U7MW7Ua0TPgM9AT46cmM9ox+JvhbIFr15L+Q9v+mqPVwcdD5BOU0+HvSvvo1kPD5KIPc9R7kXvYzVpT10jqA+UzV2PX90eT4WEwe+ETp+PQmYnLzCvgc8SaC1PG4qtr0l/iu+9Kh7vTH2ljySl7A8jrZCvVbt2rxu8Uc8I7IivSqMCbyAm8E8E5xLvXA6LT2mBIE7TdkWvQcr/T08+pY9Dx8KPhGhXb3Xywy94ms3vDnnLj5kEYU+NKtjPqZiBz4LMim9g2DTvbbDHL4RwlC+eMWVvpkN4L2Ddro98ZnJPc4X6TtQxAQ9ZTcbPeEssr4EV6m+UQyWvpKsmr0vf+08pm4YPoGomz0+Pko+6kWLPYptBr4FGcS8PJebPYqd+z3ipQW+ZDo/PiNFtj3zy3C9VrknPAq1L7x7EGc9Eq28PGWGLL1t2Ze8zGDwO76DnDtOOIu8+lJDvQHbvDwOpWm9IwfjvbINs7thdOc8vfW2u/jMwD1TixY+VbEqvmZnnzx81x49UYkYPYpNgjtg66C7sMEXvNzWhb7Ock++Z7h+vbPl6D0Ha2K9lJKuvUdWeL5iPKG+NZshvqw/hr0mpTS8AyO/vFyFir2iQOC96zGPPSgaWD7azcQ8llQ6Pb1oXD1UV8G5hqIFPUT9nz1qPl49mC7xvFgVWTnx81A9ap9lPZBwyT3sSvm7IJo/vTKuU7xFJGM9/+NxvRZA8DzxtS+9Tg6CvUp/j73oqNa9iKcvvQnO873TOCQ8op0LvibrGr6qFUK+p5MEvm+p8T2TPiA8TfqmvIGhAb4v84m9rOdfvhLE871lM469zWs5PRAlOj1JVNC8cYV+vnymLT6i8YM+WbYRvSk0W7yuYcG9iVvRPO3JXD6hpVw+bghpPv1bULw5h528+rbiPJKG17smuvQ8gTSFPXFElTxhcKy96bWGPacecTw31FK+qm8YvjIyMr6LWjG8mpCGPR99l7wJPKY7MENpvQjoBTtD8LW9oVHOvTI2972bcJg86RKkPJGXHb6rLM498p6CveJ7i740Esu8UKOcPLJpV7zeInU8sWUnPUpFHr7C8B+9peXnPPpcmT0XgVw9qlA2vcUn9L1rbAK99y3IPeCftz1Ka3S8Dx3kPdFZB74RZmw9RA++PVKZAj5AIAW99tgfvJCO0zy8xUg7YULbPQ8kWLxgYRW9OHEKvYYFST2edsi9vSsrvSBLI73zOoS93m1OvbK9lr2HtKq9GxWyvUpcrL0RyzU9/Z8yOqcCk7w31Jk8ZeCxPPQW/r2qck6+mIC8vc5YtjwfmaI8u6FBO/5ehz1q80i95y4hvjM9Sj5CUAI+eYzBPbyolD2CvcI9AUJuPASjvTxcksA9nyCiPgOrGb2AtKG89VgmPToalDuchZ4+A/ZYvkraxT1lYVM8m32XvCwKsD2gSuq80eagPq9Vrb3aqE+9vHqTuyJmaDts2V09Pac/PC7nPjyfRNW9rYj1vIYhnDxD3bW8l74DO1G6GLwBR4m9n9YwPeeMDL2i3va85p2GPWl7Kb1wOEW96B7CvZLkB74r3/C9P0bHvXg7W71B2gG8hJgSvTk5Uz7qBiu+WHKjPRvWwD66AaI9ZJ3HuzLwlj5NBX8+SqvhvsP2OD61N5U+qT7qPZsu2D1LjCc+0IwYPgDR677bkoG9F1oCPRFGVr10d4+8mUFqPv/Ydz5zHZe+6umQvkOlCDzfCLQ8W6rKOheDFLvtUb06nJrUvG79Hr5Yi4y962YFvYDuGzk9Djg6LA8yPWbXmjtWu7i7nxvrPAkkozurE0e9hbngvKzcbr3RKeW8nxz8PCjmDjyu5i285XEcPZgCY75yzri9nhYNPk9hFD3beb29y8QEvd3FqL3TK0u+x3HRvT2cuz7yu1Y+6bs8OQj3Hby+oAU95vdEvahOwDyjpzu8R1LfPRJ2eTzwSZ495wR4Pmqaqz3/O0Q+bkRcvnl3ub1kEBQ9/PF1vXS5wLzX5Lk9Ix4ZvdpSiL4Pk12+Wkf3vWC4uzuhQIi9YgxLvUYpjTxWEnu9yJ0wPX/WAL1gXKo7LLahvSmfZb01rS2+s8uJPcwrTj1lQKc+0iEfPaYEaT1sGjE9khK6vBMOKT6h4Q8+O/h+PoTMG726X5M91bi/PQjIkb5EdNa+ubfxva57yzwLPA09L6DtPSBJBD1EFJy9WCcevoYTqr3x7aC9SkAqu5J5cT1tD2u96ftOPoNTuj5ur4Y9C/TMvd7J6Lz/esA86upuPfLWC712dxu+H4R8PArCj70rRKu8/xTXvHvQob01Iuk8nrimPKwunj0rDe88MdutvG8lAzzLlbI9/vS8vEMbJT4uZ2K9AULHPBRiSj2thh49siAYPum5Iz6wzfC8rKeAvtutg7yJplK9PPePPdTmlL7PDqC+TC9Zvm5tTz3L2Gw96b60vGcRUr26/dS+/aN8vhK2gL1SW0O8QkE8vT+adj0Q9Za8GqIjvkPGor1clcA9aiYHPmav+D3dO0S7BzvHPAO73T1DewW9iAIBPTdwEb3r2zc9fzXXPKAiFjxunQi9iLVsPXzEgTyFnxE6rfXIO/i3ZDyut2U8qXhcvu11m74BRDI+UruXvLOHNr5j2Se992j1vWscf7705eC9nRebPmaLfj2rJqO9klLlvJ1ux71W1eC+DZCsvhKM9L7IQkC90HEPvqGu6Tu3EUi9JL2au9hZ8D0OBhA+hKRXPkBv3T0Elrw9Mh6BvK5TJz3bOfc9ZbcmPb3ISD2wfDS98bGAvGCQDr27p4g8fiRwPXy4rr1gFIK+lc2vvSkx2zw4fzo7tc6ivcc7pr0NOeW81gNxPMxA7r2Czzq98nbKO9gHmD1qE6S959fUvYZ4rr5urMe+fHYlvFUkWD171BS+f4pzPQE0LT4tf0a+G5uGvgfNRz3f9ly95JKFvUaKLj6MjZA+8JWiPcTh7j0/tzI+2egHvFOg+b1kvAe9vyHuvI51KT7vFtA9ZGFhPtTUyryEGk+92Fo2vVnSiL3QAqC8bQ1/vdlgMD2LAoc843ksPS0LrbzJA2K+xbdivl7kT73Ly1A8+oDHvHT5GrxZFFA8otKyPMJi1r2hHwS+Dv8TOCDJ7zzJiRm9jirEvVWDq73nLS+53wbQPAPejz0y8O096eIcPhxplL06dZY7crKPPc0sML7Cv3a9aTcdvKDrjrwzTtK9bwvSvcoLob2dfSC+/rk3vfviijy3vau9E1sRvsBJH7vukpa9MQwDvqZz5b1Aqj479G1cvTgYSj1J3E49BrA2vZGD/r1CHX+7BVSCPT1PebwVs0498lzmvBdDFT0OSqO91p0cPDxTEb1VHNG9p7t8vXkw8j2tAl08iK8UPoJrWDxGV+Q77gZUvfGQ8jwrEOE96Vc3Pr6jCz3j3HU+K8EfPtNUyTsvkEw9W74YvC/3wb28puu9I8TlPS4uI70oWQw8rY/cvet7/T211Ae+rCKCvrjzDL5Vlwq7TZNTvUeTPb56+pE9TykLvhCJGb55MXi9D2SNPDiSHL7QUya+ZuUNPUjPijzR6ug8XFfwOzCrrbxb16s9I7uovIfVXz3583Y9Ju6nvQivOD0Wygy9LZWuvbnd+rymk4G9tL4mvE15cT02yYi9VluPvW7MZr1RcHm+kzQCvIepIj5EQIM9Q3bePIhzdr0rJSO+v2lUvuQWWT1aSXE+WUqrPnDrOjzpf269BL3WPWswG7xvwQS+OUpDPZyoGj6zgak8rTEAvfViPz3iuGo+FA1wvmu4Ib7S6G077+plO7vfvjxs6Js+UQPgPjKfBb3Nz1K+n96svdrRcL3dlZY9plYQPKOCaz1r4to99ukZu4vTrTyWO6E8WbXOvONyJ73WRKi90s/1vaBGML1Flcy8xZBMPdkko71QpZk9FRsdvnYguT3Izu291KoCvonvg71XC4U967FBPiDj3j3fORu+Rfj8vI/dzLtTAse9j+m/PVilRD6qhyQ+4veuPBKbmj0bbhk9sjKnvb9C0Dx5NVI8fY8kvuHnOb0yw1U9UB0xvXGT0D32l2A9xLtHvVcy1r1f3iO+WPf5vItHkbzFN1U9ipyZPaiFHbzXNqu8LyS2vWo7wL29J9O9Sg34vYRdt7xt03K9CCcYPhtNkj49OrY87AWbPBTQ4Tx1QLu8rfi/veMYmzo2Ja+9NeCXPt5L9TxDxDq95tIlvBkOGr5BLNI8M+dLPrEhprwdnHy9i/MfPCVqbz0O8Re+grL5PVB5aT0wHka+AukZvYLKjzxeXYI8I6XHvSiQgb0ibHq+RMotvlg/f73SsnS9BsiLvHJ2kzyvuQA7sWfUPBKoYr2yloY9dPe9vb/VNj0UDAi9crvhvZIuLrzaUYQ9STIpvcqiSb3j7p08fSzzu2PYBD2zlVS+HCiAvnF6yL0m0XY9Eq0nPQeucT20KII8Vb7hvbUz5707ex2+B3F4vWFjHLx0Fwi976Czvr9Qnr5e26e+r8iYvWcUPb0NchW9tDuxvJsdkL77XNK+Igq1vopXJL02uSm8ePSTvSCZK74DYRa+ws+WvvNysb1KKZk+XjluO66HiLsa8hS+7yHNuwbKlr7GOyu+hm17vZm5gzzUQIM8pW81Pf4eXryfKls950FbveRn+zzk/1k646CBvdGUgz1BBqA719v1vHhMYL4htgu9VSNxvD95sTx5kvO9qW0OviJp2L18FsG93DAMviyagr2mzZG8RS7vvfX2nz1UZRe9f0IxvIougLwrmlO9t9ULvX0B070vsKI9V3GCvjQUvz1R4y0+9geKPJJ7ZLzszyQ+3rtyPglhlz7Bbxe9z/dUPS6HAr0fNGi8V6sYPRGw1LzMOUo9rcQcvmSxPDyGSEw9Es8QvXkFhD3pTvs8wC/ru4TC0TxickI8gY90vSn6/j1oPYK9AiuoPMviDLrx9+y9p0O/veC1F727fBi9jBunvLxKmrxFpec9c9uxvAJKzzwxW+K9krNEPVYVNr2ib1M9wsXMvWuqcr5C1cU8nzlGvdYDzj3fbRq9z10aPnGmhz6Wr3C+qKT4vGFOOj3RCT+9UByOvf2Uij71N6K91lyGvuSLeT2EJD496u0kPYaINj3MDEO9pohTvoJW2r08kqa9A/yiPLVZg73j8z49t50APcNI9rx6Etm8+l09PFh9TL07jDm8efiOun5MMz2WVqY6mU0LPrshuTw8YbW9B4n6vTgMezzja688QdrdPFqhuj3tSZG9QtLOPVkw/TvLXV+9b8+yPO51o7xYwmU9BwM9vGqWijuAA6a9Gz3VvWvPxDucWss9Np4lPukSV74NPcG8dyEEPbgDmr1cUwA93DAoPVrlnb3XWZ+8I/l6PIRh8DxX0V+9mYLHPI8W1r11rno9b8UjPsn4JT39lJI9g68TveESgD3w09K97VrYO7gGpr3NghC9WnOTvWvhjTyAIwE+P7J5PXXEIz3qo928ULrFPbrrlr19tRQ9Lm/SPRjYwj17Ofk8+pqWPErl/zwy7KC9QDdgvWkTAD5GV8s8SsqAPSk1Cjz6mQ2911PHvc0vh74iWj8+6qWwvS3yqTsu75S8orGvvDXqCL42AlC+LvJ6PlvWjD6cCQ09apoPvWBDg7x3lCG8xsgCvLMBF748Yoc+cRK5PRXLjT0irw29uSACOwUXYD3OFKE8kKvNPNIwnTxUeQu9FP83PTLGTj2dvIU9SoeMPOgDtD3MfUq8CzxtvBOhS72d+VU8E3X5vCDRkz3KI3Y9hxLrPeUxkbtMRJq7EM19PVgij72iN/W95uLYPghHzj1YTay9cIFOPanbDD2DBZm9XrxhvgAiuD4+5+I9+x04vZU7wbzns4S8SScbvps9Pj5jDJY+I5vFvddSx73kxRA9Um9CPd/y/L0JYjE+5hC8Pt7icjuMR029Yb1xPTv3Lz3a81m9l1qcPcIYiz0FzfY8kpZVPFrHFTwHy8E9gmKDvD4MVb3rspK94qonvSTqAb3m59G8ByJmPU8k+zyLWfm9c38/vTvwpryO35Q9v/CFvGTg5Ly9AQC+MVjKvV/nPb34kgS+yoBhvN8PDz1+ij09S7RKvZGfWT1iz9U9e7yXve875j1jkWo8PPb3vFVbVr6ix689qrmOPq/oBT4kLq691QMtPJ6ymz1PKR88iG85PpqBNz6h1DO80AdgvVUMqTz2joQ9ep82PiC7qz5eKgs+E/MbPgn2z73NqTc7/QoTPE8dszwxOu2882LCuxpsyb2s9R496MprPJvwUr1yQkW9EJ5ZPivpCb4jDlK+QyMkvoGTH735Ee69PJFcvhVT2TsZ1968bTjRvSEe5r0ezIq98DuRPPpDOb5/x9695ObNvdQLk77hEQ++RrHdOHUD5rweZmO+uXA5vuGBir4lVty8C9U2vF2Un7ofLpk7W8i8Pd7FHTy1MCe+fvMgPgMoFD4pfSu9sgmOvRZDUz2g2us8HfR6vAX/w73CMDy9GqBevRt09zt9doU9TdbGPYMbjD6cncg9rkpTPlkTjbsuEbW6xN8UvlIMJb6GLCM+aai+PWkOiT3mvPQ8RfqTvHN9Lr1MQai9ol9rPAX7370p0lG8EItxvQhkJTxQl/o8HisLvUqpSb4oIAy+YcJxvQpfbz22Q4O9j5ErPtm01r0FRea9y66evWsDn71Tcbe8YkKKuz34bz3ALGO96NsEvRUMfrw1BP47fJCavF2aFj17xf09GxzaPYL9Mj4yiso9+C8iPbc1sr0oYzo9EsusPadqw7ypSTO9kKmOvLOVkT0Cwn09oQQEPXNfer2x7dq9CiFmvpxDRr4kAzy9fJPNPLq7/rwwOV0+oOgZPhEYKL4cRCy9xCuxvUDvWj1KAwI9TASyPaEpj70BtcW8km0dvlxqrL3Om6C8UokxPSEfbL2GM0O+GYh4PlB/I7zMtpk9WDogPeg2ET4P92w+QlTiPQbqKT5SZfg+bYKAPuZ5Sj0lQkE8ljsWPe0Glz18okk9YSe7PQktyD2f2S49FrqTPZhq7TwBiIQ9p/t/vCa+oz25TYG9XWa6O3GMNz25reK9wytuvW1kcT7f6xY+3UQbPqDzl73cIuc5/rX4vBqgAr58fKa8Y5InPrBcAT6Vs8m9x0EEPeBnarwEq/49bB6IPuGDdj5LPIq+ebaIvVr9kbzsFOO9D/BaPkHoyT69UZW+nEM+vtvfnzxM5Mg84TTqPGAJoj7LFFy9mbukvWZQWTwmN8O9aQ5lvb6Dwj0vJ2Q9A2y/PUcbTj2C15i9msQMvQJuor1azvO8dQRMPdQlh73x2Qa+70YevupuDb354Fk88OjEvSl7VL55jR++4khovnUO2r0K13W9kS6NvVNPeryYag0+28PZO4WbD76vw+C9Ntw9vbPTjLv3cwm8fevzPae6b75e3pS+Q9ppvfsyujzlkPc6hSnUPRmNoT5Z18m86MOYPh4MQD6AVYM8UtaDPTxshT433UY+KXxrPWWfxz10hAA+5huauoFfDT38fw27e83hPDjmCrtTzMa7HOvCO7rb17zvlvQ6iXuwPXE+Zj62Iw4+NDO9PGL8b7zdySY8MHwQPV/qbr3qIz++FOSPPgQt870g8q29UO+ZOUTGpTsAc0G+4qkHvcUyTT6yNio9Kymmvax2xLppU1U9Q3Dju//Fwz0l2yM9FaS9vWcUJj0WFDo9Z6YtPBRSSz29lQI+mMFPvdBCBb1EBgU+DGCSvbAoMbxaDYg9v3VlvbuXlb0agqi8WMSjPV7MiT0YLt48l8gXPQkfqT2aJuU9YO0VPiE2iD0NgaQ9XhzqPO+U3rx2jMk9o6jqPYGlCz6cP589A805uxsEBz4DThc+HhWOPjxauD6uvjc8oex1vJP0Cj0OQpg7zFeLvYtCkb4Vd7g8PXaWvQhUPr38YDO9K64+PEbGAb48/+K+dZ+HPhVC+72FwzK92pGEvc4KTb0vD2i+iJoDvxJaTj5/Tf09i+gfvCPBtjznvES9MqV+vhSEA75ewVu+tgzVPbMy2TuHgF682IuQvf7vkz0rCyc8mdKgPNejvrx7FK09tN+mvGvt7TtTIMS9SrQ3PQhrQT2Uzko+eiO0vIT1TT3yJGE9w9urvUJ9hL0nQO89MLeYPp6bUD2ARYE9vooDvWK+Dr5+St29sEW0PpYVuD31RoK6Iam7vOIfQLvq0lm+37UPPooBoT2LUZY9vWsEveNsO7zOBhO9KRPLPLvRwL1MUN08+7uuu9yyCL69NwE9UakFPomllT1oG4C95PYJPieElD2oTjo8LDqQPTxFJ7w6wSc9bsAjPX5L2j2tmMw9ZoyEPaADrTyEjTw9G+F4PTpdSTy5e469wnXKvTI0gj0rt5i7DbafOwd9+r25oIY9EL48vXvS176Fk529SmuRvbDRh73bpIa+sqPPvtmZN76xQcY9XpH+PR73tT2gEEu8ARMrvtfCGD3zDFY+plH8Prm7fz4NRfg9C+EgPgXWaz4VgAU/mZhRPmdohj7b2rI9MwaPPVXYbj0bTfa9IH4Pvg3MYr1gX/K9/sDUvNyQgz2vyHQ97mPNvHsCVjzJ82C6YvDYPB8sgj0xl0o80Pv0O0EZCL1K2nw+LjW0PiVfjD4rwBA+vlsSvWZBJj1Q9PO9j8bqPV++vj7c4ha9eVjNPO/Lhb1eiqg9DsjGvDQumD7Yck0+YikRvjEN8b0+sQe9q1Phvf5ZkL6ZrGG+pdZ8PvsMbz5hcoi97ESMPsJNmbxXPGO+czJavUkYPj5S2Y8+kBg+PCQq3D2EoFI9dhWOPKU+jD2730M9xQOFPn3elD02eh48ecsiPGFiMTzyyHW9HAnjvdiUurz1PIU9mysePSIqrT1J4r096dk0PW1Izz0KfEA+FoW1PLziBb2BkNi8CyoovXqoBL0xEJE8nkxbvhQwZ74PYLk7pJyBuwnj4D2y79I+ZvRIPojL771nAou8SX8SPoeyEz5Ch1E+RWa6PXDHtj0zciQ97irGPS1NLD74rsY9qOaSvar4ur5vp+W96GqEPjykXT4E2+49Fw5avUwbLTzV1MO9RKpuvTT6Vz7QRT09SE8YPQdTTT2wqJu9JKH+O/8CuD2ZiC28DzoQvBJnzr0s1Io89/48vccZlzvmMkK+u08QvfLnTr3Fbu67hoCOPdqAmT52b9c92UW1PRD9p74fBMW++d6TvT+3mT3D/XM+p7dmO5moAT4p5AY+ieNjPfWCPT47+8I8ps2eveGpIL6FPiI+0q+APMtP2T64Rqk+Qo8uPdlnIj72JkY+0KgMPih5ATylDuk923RrPnmS8j0efWY8D8hZvmeS1b0QbJg81cLbvbJ7CDpnM1o7XSoMvnS4Cr6S/5q9UEvBvdPBLb1Iikc8X6MTPXf89bzJH5C8ftNMvehnM74tB6U87ueavNls5jzSDYS9Ve6fPZBQ073rNIS9SgITvrBEhryzFUI9mvuoPcebCrz4fiA+V5q0PYryDr5duIE7j/04vYq3iTxAJV+7JADqPY+GLD7+CfS6+Vk/PfDYrLwzoym9Z0m3PWjKX73+Noy9wrJmPWDTPz5hAHI7IMrEO+ehMr3e5ry9VanRvWpRmD5KOKS9xMknvWDL5DpbNPA8bckvuxXUtb02VI+9i4dkvYODE7zx1CU97pr0vVsbBL0mCPm80C7lPJq4kzzQfsO9jkVNvZ+ahzvOeLs+wXxOvbUcLb164RU89qeOvRqcSb7tDb293wuSPoXiIj4Kujm9bqvGvfzgXD1/Bpy9g5y6vsNLzr3h3je+iebfPLG00LpXR809OxApPpi9YL2Z0/C9aHnxvVwGBzypfHa9g7MxPRHnyT0COMA9e2Ayvq6Wcj1bWss8/BATPeY8Bz1Jfxc9rjGYvdOcY71sR+s8YmixvFRTLT2b3Ou8R6CUvKGq9D2GiQG+NFf/vPyOR72XxiC8P5OYPE2nVL2+dYw9WoSEvO/jVDw3+qI9jCbfvBpC6zuqaK6+Kg10vh9wTr33xBM+WsG+Pt7vsb12t5O9eOQCv4GF0L51ZFg90Q2EPnsa1j2P2x69wIJKPbUyyry/pUs+wGlQPSB2XL7afy2+Tk4kPWUgGDvzM/k9Wcw1Pqtzw72Fcw+951DKPdzP2j3Kvom9IE6yvfmH0r23OYO+6TPBvewHBjuVKYs80KwSPPJcyD2MhUC9VBsBvc7XbztBQuY7YhxSPZpRDD23Kz8+jnrfPfEIpD1jvyi9lpSRvbAeIr1tXB0+mxSsPV8hkT7hNPE98qwWPabKb73NgbE9Me+avAplJz55xvO99GkGvjpwuD3HsMO8TIJku0nsnr2QebW9M+hXvm0hB72LZd8979lEPCbPVr1YYfU8l5wePmiG5T3dBPW9vYykPhZmJD4IeGs9vjAUvnAi3jzniby9lwtnvtrW/b0/OJY9uBzxuxjWAD1n7gg+3oePPqk3fz7C8wY+3vmGPRxRobwi2ba9w5ARvsg2Sj7bYlE+MhVaPt24tD3W5be9omm8vVs/2L11MU69yuPpvJUqZz12EdC9fIOyPbcDuz0NenY9LXHCvQ/34LxCclW+AM35u0WZST4cODM+0AFrPhNskb5yfHk84JRNPvyRjT5GXHs+nrC5POiV1zxAGSS8fByWPRoGvz5izbY+pKLtPS4vZj2Cqby8STXDvThstr30g8I7ZQBAvJOL7LoGYiE9IC9MPTN/DL47Ci6+YJOavZCtR76aToc80n9PvVOPCD08pQA+zbmovYk98r4i6UK+WFJDvfVSrT0k6HA+w26zu5f2Rr7oric9RnAXPUCu9D19/5U9feAHP5sAsD5/nHS89WEBuxoaRj7hMRc+FKksPjRBir0+TCQ+2WEZPv9RID7EffA9Xv4nPCb8/7zwzSu+L0jDPff8pD1Ve6K8zFLCPUSebb3BEsQ9tKULvozpjT0J/Z08TYb4vPlfqDzGx1a9/gaPvSUCYj2D8tQ97xeVvVWQlL37j2697IWWvFmTBT5DC8I+e8ETPjHFAT42lcO9D8UGvm6EBb3NJCc+WRT9PXRPwT6GIHU9zTdevl1Seb5BZAC+Z+UPPaOpMr4OW56+M2SmvoKpTb2Hj6k+57uVPcpN4D3lP5++UPX7PLxySj3WbIw+aa4KP1oG5D03c7U9nRo8vpRV5r2NsKs9EQ+QPp7xbD5/Iwg9qU8jvof6hb7SZgY9rEoiu6/JI73CtC48oDa1O/a5oz1OEj09zhWovf6u3jvLURY8Avc2PUiqmjy55KM94kCRPfCJar0Qt9W945wBvo3txL2CnHw9+7WzvADGET4ObhU+QnVKPr8qHD5qOo09iUemPUZmizw+BLo93ClUvq+MZz7PjnA+dd8YPtiKAz4OrVG9XFelPUfPIrw/DQa+mz8Ovp4tsLza0Kq9CYkJvjIUxzrKX0O+TUrvviRaIb4UaVe+LjUdPGO/izuDyRG8Y81nvgOHJr7ZQgu+Cy8svsMmEj1wUR89BMz4PXmSEj0TEWW9YIqsPeXXkL0XSBe8inzevArwnb0mVQe+5kHyvEgnPT2a/ea9+esevpxUpz0jf9+98soMvu4jALpThmS+hAn0O1sXAz58m1k9ThLjuif1Fz0D9y4+Ol7iPJSEWj7oZLc+i+EbPr9P+LvLqb++4CWbPPwOjj79r/I+eLCiPm3euTwwxRC+lVjrvR3NT72K8s0+ZFh0PiFgxz2+aBY9vQy5vFM1pTzZfKG9dwPGvZrHuTu+Oli7cX3ovAr/472MkHC+qDIDvlgRub2vvkw7+Pq/vQZFhb2UNxa97bGgvWZKED7YqaM9yAKkO4MVBL4oyca9HvFzPaVo5b16KJE+cfPlPTLARb7828G9NzCwPbHDqj0kASI9AJ65Pn6hOr5KMwC98StYux/GHb32ExM+zNKIPHDlrL30vvs+jRdlPvIoaT5Nr3S94ZoHO2RQJD62rC0+xuUpPrprJT7oM1o8JknCPAYHNrxY6QY+grQ1vYSEsrzp2kA9SduzPNPxLL2zlQ89bAQwuxNL+DvlcK+9Nk5ivWP+TzwjqW+8fAedvnJ6Dr42clY+AA9/PuFVczy4TTa97CmIvZpRg77C0CO+FpyRvX5cTz4G9Ig9Xk5/ubXHlr2xPtS+pO77vvY4ur78HqC+vMMnvtjXUDzRMMw9YQ4vPkM7wj2g0Do++wyrPbeADD5ErZK9Qj4QvYy7Pj6ujIg9Qf8QPh2FMD4LNAo+l+YdvcefCr20ja87yAy6vaxiLL02nQW+tKELPUKStD3tkAC8+QWdPOEBJ73stgC+aAcSvtaF6bz8Ebe8h/LSO+kPhT0BgTI+9J2uPUfATb5ExN28z5g1vdSMCj1GMMc8visrvp0kg72YuJY9wWzlO+L2a7wyw4g9AKAxPsRYmD6FlAk9JYo+Pl3sAb33BRE9cDWHPcli9D3U0Gc+4f2BvafFAb6c2Ve9H4cGPGWumr3cWu+93U+ZvbV6PT3IJo698qQ6PlgpLj38RP28nVBQvfyhKb2T8vm9yfKHvfQSLD2PTmQ9k1P8PNVllj0FDW89YS89u/Ndrj2wIEO7HRtlve0poD03VE+9TL8WPd/31LwEs7a9tYfUvSe1JTwW1pK8RDGUvnbck76Zt4o9s8BKPolI4rz2J968WKpgvXcM3b7K/cS+1QY0uxyMUb4ctDy9hOeivd8HmD1pdMK+ZjH7vt2g+70BVHw+iskNPTaQmb00DDg+saljvT4YHj2s79c9u0DJPcyHrjvaXwY9LM2mOgI8kryibSe8oINNujPZbrxrbso8SIm8vGFplT2BOWA9MHuxvEF/pj5Qzhc+WRnRvAjYar0mJ1g9zh3yvQX1dT11Gxs9V1FPPsVuGz6lOSC9gKbEPKOXj75c4xi/J5z5vVfc7T7qi6E9Bve5vZYInz3TeKE7zA4bvDQlfT4mP8Y+63FaPgZUL70HTiA9ZsZqPcf+Cz1BbVA+vAKjPlTQV71PONa9awOWPZRtgz2De2y+3CgpPH+vIL21WYa9xdccvffSF72SHzU95htXPU6W87zCGpA9i0beunpvp7rsIIE93xItPfp6iT1My5I+8yOxPkb7oLwe/gW9TxG2PVKIwLpRMv092v+wPkZld7ya4Ay+dyn0u2NI/7wcZYW9RuRAvqK8z70mcTq94EzYvZ/QqLyTdkY9/Uk4Ptxs+L1ya+298VAwvfoIyjwRaLw8W2NIPRP+Xj4TCQs+xyn/vbeA173sf+e9JI41veFtK70pXW0+mNlVPjfyLD43V6W7JAW6u4tqUDzzArQ81VZMvUqF0bytL4+8H5OJvEA6or3VLFA7q++nPOLjEj1VpsK98EDEvbBoCL4UXra9NzJSvYc4nj0y7Ee8ImqMPX+Mvr4XVji+t0CWvoui570cYqc9OJ06PmU2ND0giIE9gjIKPojYjD00Cbu9Gn5jPBWCWD3OsUK9H8wDPlkQ3j3uVLm+23pqvaoEOr19S2y813RHvt5mSb3A04w7/M5dvuBId711H6c8OnzjvT9gk7w/6h0+RKiCPlbNHz4/Eqy9XtGhPcc7i7wb6bs9xuEMPrtC+j1QcjI9xFC/vITOlDwAYha9XrkcvMvUOT0Sy729by+5vXI6ObxaD6y8oejovA0PmTzfMH+8T35xPnVTM72xXu28n6CPPQ9sLL0gbe29TQFGPVNGHz7lgWI+VGccvfR/sjoDUZW8LCGJvUVkHb1YWro7CsuSPey5xb34j1k6MvC5vBymjr3fMEi9h4UnPq7nEb73WZI9U+qePBmR3rwJaIK8vX8QPqjSBj7UWF285MOQvbhsDL0XPXK8r1Xlu/lpLz2grge9wDwUPv1OjDtNrC098kW3O4bXhT1xgrw9CIgrO5VHJz3SfTO58YSPPbLiODzKR849E2o5PV3EHz3V1Nq8stAuPc2BfL1V04K89Ud7PO0W3L4bEZ2+PF44vGg+wrx6THi+mNyTvSZaGz7FeYw9nL0Ovp2GeT151Aw9cO8YPgpIXz2MX4C9kcSFvXASYrw8zyI9N2sEPRdXFDxxhjU+QQgRvlpJ+73557K8JXDMu+FnZj2i3L68KxiivV61sL27H4W872CqvGqD5DyQXe88ONHbPSO5hzweywM9gGTlvBJHw727P948a1mpvPrFSz2spu09SBewvc5lm70Uiak9hHV6vTOvkLskrA08rRuUvlXp7L7PfJg+JcSGPbvR972dRvS9v28CvLBF1b6LRpS+j69ovmKLxb4Il4O+5ZcNvS4Pmz0SrHe+832fvmbfFb4xv3U9gmQHPmkuib3xZLg9VM9FPpxsEr75bIy+FW6XvSqFUz2Onze9dISEvDO3xD0onAY+ILWbvSkmsL31o167XWITPGtN+7wx76m9xmhGPf9AvjzIY429bviQPSU5xLwVKBq8bxqDPbEHTj4+jo89VP11vWSbFLtlGyo9lFZ4PUS7Dj4fDoU9BX9ivXQtlr3689i8MSuHPW4RuL0wn8c9FOXcPvi9lbx3ksG9Iq6DvA5jzTsl/GC9ab0hPl9rBj8kc6u9RGeyvUNwm70GUIO9m5blvfhtAj4C7v885x24vrAfb76xZ2+90wD8vB/qUz1kYQ2+lIdgvgg5Nr4zklE92UICvhyZiD0Zu9E8+ntSPRZ9mj3h2qg+tnnnPZHP6Luchom8V7S5PXaggT1gAVA+Bns0PhcCkb7cqlG9RviovTWTqr0CzVK+bY+kvIo6W70SUKm9zmVbvqf6v70OsKC9PSpEvj4Nhj5ONqY+CptBPmVlyT2P7JG9DlPfPWeTnD7O+pS9oT0TPAr9Zj4xJ6e8xen1vL+3Ij57xrE9+Q0xPgUpEr6JvWE9SOrzvWpMT727FQM9F7z7u/aDqj1WI/A9Kp7Mu4leBb17F3Q9dJRevZGLA727pLS9eswUvv/Ei760ixi+6hK8vHTdwj2Ld0s9d8YuPsH9cbvsNoG+KiAFvSASoDy9n1e8KsiLPU6hvD7pPMA+UWwNvgRyOb1wNya+NCiwPaSivz3jvhU+2AaNPriwsb1kabO82vIEPbz0cDy8Vj8+U1eaPpqcmj5UH469yl6LvHpGQbynx0C8XR6QPvONoj6Fgs4+0PFXvTC8yL02JrA9LIbpvBYiJr0cbZU8dnQvOjxPJL3QA6u8RQqEvBmn4zwj2Ti9kcAtvZRvCz76BRm8klNJvJ+cLL3SaMQ9zrroPrT4qD56wz07in2uvqIRhb429Ve85oaDPmaHyD6X6lg+WqKsvWKsxL5O9J29aOCGusvqpr3XFsk98lW7PtLHsz7Y/zi9Vc14vu88lL0f33S9VWUOPnE2RT5b4YE+HWeGvs73tr7+0t+8pBPfPFaHAD51yGI9OZUsvJu4jL6zosC+mOK/PBQLHD6l408+KXapPb0Imb2LVcM9iRGRvZM4Wr23aoQ92TTyO4WL9rzmj8298WFSvR/0GTzdmby9UAYWvTcsjb3m44+9e2kKPXLYMz53BhI9qUOvvd6Cbr2YtKo9ONVQPm4cN7674/M94Y0RP5nbZL05uiE42yHsu4xuBr6prvm9Z27/O+FMj732jye+ZMbZvdg2vbyIpjG+mdZqvslQkj5WUwg+jHLmPRm07zyZKr29IApnvnEPfj08EMk9J3GVPpEbxDzb7Ae9mRQwPYHCkL3L6cs8r5FivR14Gz4UKYu96m3nPENlnbxksUa99gUtPpa12D0DbHK924LtvB5mtT31LeU96e4bPjQwmz6tjZm8l8YmvsAxTr5KfZO9/mVHPYKUGT4DHy6+u+8ePZiuK76N4XW9M4GmPNOjn7xC3UC+Oy3BvSZAZj2Kwq855GiCvTSOhz1tXda8Ej3EvdlDBD7Sona+isamvjpgoL0EAR89rTtMPnrrLz4Ds9y9EmXmvW5nGb4Q+wS9eGljvanSgD1Fr8i8w6hPPWrDhbu8o3G8SnOrvPLiFD2B7qY8YdSBPMaEGD7c+IS9MTe9vHP2u7w490m8qjagvY2vkr62+Yq+zr7OvcDeGb4V7We9ebtRvY3mP7z2DLK8sjxsvgDUJb6359A9K/o3vpRsUzs9VzI+NZFnPbsLpr382BU+keaZPuvxXj1XjT6991IwPayonr23K7673f4sPtizdby6/mq9u1foPHNRxb2EabI8Kbnfu0/J0b0gTI69eIl6PbQSdr1Jj/68/o/yPfD4tz3mnoo9VCk7vVR7z73bCZ28i2S0vPHuLD0RPYo+w9IOPWgpvrwTgpG8ExjQvKnWRj0AVfq9YHSPPfS0G76pEhg9VbxAvOeRBb1hqbC+nSPAvsy37bxC7Tg9St+ZveCkP73q+549VBpZvj4xKL1sNII+CPS3PZ1fAr1o4Qk9BuSQPgztAj2+h9m92+PQPp03bbuEexC7kTw8vRaGDT6qX809RvNMvrxJo726viy+sQugvWumiT32wqw8zNxIPte71z0XD7Q9Z6DMvM+yrbyRTAu97yRlPI7KWr0laSm+XMccvThJPr7VZqu8a36iPe2Cgz0YkT89Fmn/vRtqn74/Cfu9T/uDPZQtC73sj729XnPDvRklur0W2Qo+BvO9vZXyUT0Dzzo9jTsbvl1Vy74xUoG8T74zvcOGxL2veCQ+C3khvukZgr2Tc0m+JceBvsKuyb00xYc9iB2RPQKCFz328ek9MmagPdjtGz4liJk9FusAPhUZxr3q9fq8vIoDPVSv7zuNgWo8gIp7PSKNFr4EOFC8udcfPQydPz11K++8EATivY7zpbteF7C8rupVvGQTsT0ePJu6L82RvaQyO74FRvq6S2SDPh6ngz5H7XK9vSukPOJH7T2gTgY/8/qnvaSoqz7vCTE+K+WBPWbLybwOt54+SXvivIfIeL6pDns9pjGPvNtJAz0BJAm+YmWivRMsNz1eXY+88uW0vj4KnL2FWe68ErtmvRlVrrrCLKM9TWr9vS0Obr6gtii95NnFvJbIDb21s4u7kC74vUDUvbvAnqk7hvUuvdN837vMNIu8RxmWPWqDWL13UlG+cfCmvkwmFbw7joC8KSIYPZ0plD2w6mO+Mw7wvhfMsr7jXm6+QR2FvCjXBL5Ul/a9jFS7PtETf72I/BK+Yqp7viYVlL0tMEa9KKEvPq+93T6ryBA+o8WOvUkSfb33M8W9DeoPPK21Jj7+69s9ydlNvHqP372Les27lPDCPGlOkDzgqQi+jjhXvFapub0jYkW+5SinvGg7orxsCuu8msZevD60Br1aLLW8BatQPcAHHj2qQCq8Byw+PWVoTj4K3m+++m3qvkDeoL7HBFa+69N6PaNHob0Zxje8Ot+evUjEIb6fqfK9CWQovJ2PDT3ZQwk9vhrnPNYLhTympGk+ptaHvCPhvb1w05K90hdKPH5Hvrqo5qY9GOB/Pv9MHj1V/ns9widgPZTyRL05QhS9n84hvTunXD0giou8vZyRvB4LX72hHi698D9YPM3ChruBKjM7P9IrvCRkc73WszE8skGEPTOimTyX6yQ7hY2/PX7jujygkGI8xmflPHp25Lwwyjw9AexDPXTfJb0xRYm9HzyzvZNxEr3RM1S9njObPCefDb5Hto6+8BQFPTswfDzRFcw8XZNvvbNEyr2fYmc9QsK2PYx2BD0MTT4+LHWuPBG82r23pvg83y6fvcVTu70hnmg9XHooPsMcr73ZoGi7fneFPn3eor34WWe9YhWPvtBIHD5Ep189Y1WYu2r0A7yl90I+cfLxPBIbfL6vXze9vW7HPfs8Mr1Cgl489zJuO9hRdrx+hru9dH0xvDm3ibx2CCG9kT1Yu9RQM71Yt507vxn2PDA7Eb0GAAO8WfhUPA7AYz3XZLQ9OUVaPih0fz1uf9A9X3x3Pd13Fb2SD0I904IfvYUqF7z267W9tLAyPcNPqr2dDEU8+HeUvE4iJjxu0w+942ncPLENpT6UmM09/iWJvRw/ib00LUG9CwCcvB2ZAr5mocC9B8oGPaG/SD1tRiK9oTF6PSpIvb1ulDy9kZHQuXosOj68GLO8E+0lvEYvtbx4ARC9TI5XPd5T+L0MASC9dj00vWxx3LycbaE8KEFyPaGp3T0bAwS8uMGJPZJ47L3GWyE+4EuoPiXw6T5NHQM+nHWKPcjwory3m/i9BC3gPQQMeb2Gh1k+vLWwPdAAC732pBC9qc/iPcCBtL2AQvu9f5fTPMFWzj377a87uqRCPA9YPT2kQG6+gKbfvZgRzj0D84o8/POYO2htej1of0m9Kn7lva+HCr46kyQ+Jy3mPbuWED0TLM28Wt1pvK4T2jz4iZ09fdpPPa+Uervk8/i75EwvvJPWyLyqkgC9gb92vYB+bTxTWE+9y9agPOmaMb11psE60xAHvcGthD3/hZ0+kFeHPn+Xlj3S5w891Jn+O5zlAj5Ynu0++y2WPVrpfz4YQmQ+XSHkPGW5ej3jRaQ+d/r7PQARAb61SFo+U+sYPi/aIr0yM+G8Ib4SPqsA0z2FhFM+ujaXPl/zED49WGc93J0VvfU9nb5EQJW9I+tvPfWJaj6TsHA9cLOIvG6iCzuqs0Q7ncaiPYEkCD0rQiE94qXbOky9FrzAjNa9P8iKO2EbG73NRg29fk/uvdGVVr2WEBC8y4ESOsu28zxRdqi9ecJ5vQP2SLyRI4M8jyNBvG6Dx73wvTC96C6jvd8qob2TsDq9PuiiPcUJmDt3cbK995k8PmvfR775yaW9Ms5BvjTA573vn6m9sjzBPbOUKD252ui9q8HNvcEPD73dDH896iQLvEOoJrtW1Qa+4zszvr4Pqz7bKLU+NYLuOxV9kL0+vnu9NxGLvCh1iD4xZ7Q+nXUbPtq/2Tw06nk9ZI2dPIgs07wI1Bm9YBm7vUnVwT2JfDs89PYWPTjJgj1yzOw9eFICvm0Q1757sEu+kmCSvR51kT2MRFc9D8udPYV6Sjw1RGq+4PAovl+z5L1Zqyu9q+bzPEmv0j4N0Ig8Uo+XPlDHq74Afrm8lt3qvQ053L2hDmG+VmiDPcsbCz5nndu92LeJPU0Qi72Jqsy7BFUdvoYxGL4zJx++oyb5vVOb1DzZUAQ9dmPpPRbzkryEuqi8SGwivYXj8jxNwwK+Pc+YvYlTcL2i6IE7JPFNPVKmgTy42SU+dFtSPtlM4rz6vIU9+20mPf0eNz2Q5689AKZQPohZkD53Fps8PHXJPZwvJT3XWEC8OsFXvoUVgj0ocik+9VSdPDveOz0O5Gq+kVrKvinjab6ONTK+CtssvCB/nbrQ4Lg93dZ7PYLNNr13UQS+1KC+vY2ZFjyLTqm8mpeAPLHBkz3mIAy+5QAOvmznbL3czF+93ElJvfMEpr1/1ay9FS43vaO30b2DS6O8vN1FPcGtIzzG1cU9fQFZPcXzDb06OLA7u2s3vYU7W7v6Cr88W62vvdvdar2mPbS+eVkmv3VkRL5pXke93YLRO3nywb1RNXe+kZeZvmNn+b6DdGm+M7UXPT+VjLrx3jC8DwnFPgC9wz7U4g49EOjBPvfYiD3DxDO+/HbMPe3uhD69UXI9p/uDvX6ffz6vehM+Ajz7vcJvnb34Ii29wkwvvskghr5HKkc+MPijPWbiKb2zZy498U0BPXaYg73PMwM+fqUTPhzd7rwrgQe7z16NvQuxJjxm6Jy72oD8vCSNubyJoD296EMGvWmITDutK/68EIOFPi3Zkj5Vukk+U6MNveTOSD2ybl29idOBvRWQJz6gR3s+8H6tPdNaOjy0tRQ+wm8evea7370jL888of40vsAT1L3aMBw9CnPXvb4snD2lohu8hTqLvQq6trzinD2+MNrMPZuA272jcqy6Oe95vQfwBT6w31E+JPHuO36foL0fGC+9Q3opvWkMqz0+6j8+2dCJPMjlHT3GLIG7dawbvMLV6LyEG7c9wb0SvcT5qb0jWFC9taaavblryD0WWCk8trm2PQHzDb4nsKm+cbjRvgXJwr2+t3A92GKlvDoaJD2Lcj++3ScYvZ78+z3AGto9Wr8fvWiogj2j3zS9r7tcPlLCkz6OXAU+Io3lPk71lb01o5G8jBkVvhT3KD2Qz+I9hCKlPgCgiD5DE1O891ZJvXLtlDzJNiS+wvhKvjTqkL1fZUE+fDGwPcquvTypy5e9E0EnvONCrjwN+N89xyKwvDH/ijykI4+8MUK1PAytDT9XEMk+rLllPj/9Mb1KZbc7AsHevbKZzj0Lm9k+3ZOqPkS+Yj4zuTq9T+2yvT723r3gqYW9qk8UvvWdTr5cgZA9tbjWvZugS70Y+4+9Oi+qvQntvLzbW0u+BT23vhnnKb6zpus95e+wvJJ2Cz0B6ri9dNQdvRJhLL5rWME9ddjEPft3Gjx0svk9sz1EPf3xKL4CjU69Mz1kvVLazbysJ9M9x84jPQRby7vnkVs9DBMgPjBmRb1NUSi7LtHDvdD45b2axPG8A6zCvVcI37szU428zEnavP/YNT1cj3Y+4NCGPqjZpz4WCV0+F+/MPFKpY71Remw971rTPQGU1T5kF5E9q+O0Pmht4Tx7tbM8sqJpPTDQYD2qlVk+0c3eveiY5D0cDkg68NHwvfBE+bxJltC9grK/vd99Rr58xak9CsKOPfX/ubxxyBm++Ms7vmkXEb5Pn7i8o6QYPDBzUz7d7529qahsvZexgL0d6yk80e1TPVzTAb7L6D08CVJBvIemcb0Sh2S9jPWxPICRmj2YPec92kgFPtNCn71JUk69ZC9pvs8LBDwWbFg+u9IBPxLD7D3kc7s8dcCHvVXlm71kyV4921AUvn1W8z3nyqC9jd0gvc3U2rw6m6A9RAeVvYdmhr24me48AuvFPcFiSbxhhZc8kvtCPmcBET5Bh7A9+wgMvawVJj3uyYM9l1r0vOuP1jsvZpw7BMjMPJAyuLzpWU+922O5PaEhZr0e+cO9zIuNPDm1urxphRs+pjwXvPOYx7uYhQC8SdgUPSz3qL0Er4c9Fa/PPYBUsz3gArC7j1q9vKTWxT2AqpO6GVwcPS6FOj29HDE+mL+mPXR2Kr2b7jQ9LOS5vdqsJr5E3A2/kFQYvrvXU7xMyiy9C5tvvo7E7r0beoC+gMy9vvYFWb6CPKA8KC2SPYj6i765E9C+IBDbPUV+pz3jFqg9CcCzvNxMI73cz4i9twoePjdLhT5ysxg+LOApPW8COTrJ+5G9yNYWvcfGpr0oou681dM0veQQpjrYN4+84m2FvT+MI7yKsxU9F1l4vhTOu73XBj++NisRupNy3bsMMUq9ookGvTk7I72nE8k7vD49vuEYij6XyO29vvnXvX7b9r0nMTY968+kPcwdET41OIE917kdu6+rTT1hILQ9B+tiPo8sbT5fGbU9XVEPvL+yqz3Ymg09JLxVPuQqAT71qpe8jqSJPa7+IT1JfxQ8NAMWvQb44DyvfKU9Bo8WPgFVB72tkTe9tVmMPd3FKL06XJK8DWQfvX7FE70DZ8y8ppe3vekMjjuqSoA9b/ryPddgJr6wh1m88mLvPMqOwD16ZWu9NwSDvU4KZr34UTs9dz9iPisLWD7tAkM+kpePvUPVHz2Tk4a9pLiAPeNMgz4x+Fe8ZJrFPWRWZT115Jc9CClBvXgYEDxsl/A9UKIRPgCObT1/rtE97KQbPsSjhz7Bybk9AEwkOs5uaD1K4d871nzsvbaJNjwZD6o9FGKou3YzGL028sM8TuiaPZvhqj1V/ts8jLqCvEyRjz3a8vM8RsA2PY5tjz3x7L67QrOhvMHKjT3Pf1o9K9erPjlnaj5HGO89+zPdvHQXUD1lHz69CjHOPv4QBD/nVQE/0nUTPvpY2D3g8YI8++bvvNXniL0h9Jm9KHyKPcg7wz0ozlI9cZvaPTI6TT7ld8C8qZ0Jv8cv8L7jdRi8ObULPUDRBj4iGZ08hGIuvl2mIr6dzmS++y/4vFEMQL2enJc8K9FyPCgHUjx7KiC9+t+tvfWow7wLORe940J4vVSj872ViAu9qB2Au0e1jbyomB69N60ZPee+ED3RH0U9PXiNPECfpD1RJiM+UDHwPSkcKr3eB9a70bmbvCTBmj211AE9NSGHPlbauT3yrD09PLSWO55Xjz1hX3E9az+9veQoVr6QQaq9sZhAOsURjjxaS1g9C6F7Pc5T2L0fWge+u9OLvDAwwL1m86Y8C7VnPCfPOT2T5Ak9H7KUvYo06rwGsVI9kIFNvGYw2zvmQ2Y67jjvPPDJ0LxeS5g7dpmOuxPQg7yWqA+8bYmCvHZI7r2R8hq9FDw4vJ7TEr15N5Q8pFOiOhLr17z5qhC9K2TgOiPMAb2rqzU9nt6SPWRhAz6NSd09rY9+vfUYW71Ba+w6XRpRvJ8YDD7WSM897UQHPrIBtD2GtCG9lmANvQ39Ab3oFxw+aG4BPjLUKD1fksw9OoISvQQKAD2vaE89heMTvp+t3ju06RG83Rh6vFgZnj3AGyW9aPJ/vIvWhT1YT2i+JLWwvc+1hr2rRby7xOhrPJjW7byl5V871rbBvYFw6r1IvPq9yd9/vbbXObxU7CG9MiE6PO9BiL1BjWa96O+/vdrztT0siMm8bSfbvBLbkbwwugU++xxEPtjKyz3i9gE9Q7pMvYpAQb0Cdog+7fmjPpiiBz1MK1++4jNXvmA76T3xgfc8mcDtvT175j0PP8c98zjzPWtpg77xBm293Rqyu2yqdL7nfaO+oQVLvfjHd70LiNU9sqeqPO+bCbxpGJy9VchtvgiAlL7G2rO9+8ayPdTvWbzFe0+94OeKPDgKHT0CBI29X6HYuzx+Tby9hD+7nNglvEDtHzwnsFa73At7O89l5Lx6cOE7llQJPTrj/L0r7xC+0y+9vaEejryKurE7q1ZZPWpk/LzGqYi9ROlTvQmbOD2Zrjg+OXgDPYNJHr2gNCS8BwkjvdGOaz6aTYY+JHngPOnMxj0Vr9S9HHG0vdl0Bz1hdBO9alKUPXzPKr5Xg5a9ER85vubksjxXysS98miTPVKM+L0vLIi+BodIvpMOJr0CAwk7jxmzvKGFA7tSZWa+gIhrvj4w0r0ZOIK9A59dPQqLC73PebU9v7uyvT7HV76OkLG9YoSkPeTYbbusgpO8abRhO5ZjTr5ktKi+RULRvfhvYL6PZLI9QJqSvbeXb7lXsmi+PSMlvvrm+j3+9tk8DL6SPlRRZb1/Zg4+OfUFPuJeRz7dPZQ+k7MzPaQWQz3Z0Ja8zjGVPt7Duj2FgSi8di+JPpYk3z2akxo7X5MXvYhn7T2qJo0+3PtRvdHbcL2vvyO9rnyAvXDk0rzNWnY8n4wevZMs/zyuHeM9e9qZPTOVPz1OYtu8Zb0Hvtoxxrwsvui9jN6lvBawmbxBywI9pH8evXQG5rzWnUe+CVQYvm+80j00lLE9/xi8PLCx9L13woK+2mo3vK1nKDhXGQi+pU+JvZFvsjzhDq49xH9EPjyFpLwpNMe9t56ivSsmGD6UQ4M9MtvgPG3ibz5e5WU+EBQ/PthgKj7Xsyk9r2eyvJCPS7wenHk+DyO5PlHwHj67RMS9o1kBvrfGuzxRweI8BeUOvCNr1j2IhGW8hg4ZvfmwFb0BGlw9Qe47vcj1hL2p4aO93YeavasAAL4i4La7WBRoPS7ugr5CeAu/DxNkvofVFj+LXTg/A6XIPiIWjj3yj5O+KbIavmQqO72CY+k+2NlfP1JnOD9p1gc+ex8rPNIEqj6oIi0+C4CuPcaPAb2geOo8qUAWvSy0Dj1z+LM95GUcPivxIr5KyJO+Ma2uvjoo073OdGo91nPKPdHFUL4zgAq+e0Sdvre2H70RF0K9KX4ZviUADj2sfVU+GJa4vT1W2Twy7PS9ZKRUvSEhYrx+jJs7EFBQvNqVCz79og49SoCdPXNrXz08H8E9PFtluxFn/jwOT6y9BlSZPlPUrj6ogxQ+ikwMPRBgfL1u57m9TZa+vdNUkL4zkpK+7ygSPgOzCz3g7c+91HYTvkWciD1yodO+Pw7VvsZhXL45k0q9YbwPPuj3ET0WQWc9LGmuPYeijr0k+VY9jGwlPU9hMT33Sv89J/PrPXyvgz734Bs+rwndPSi3P738Pru8ihDWvGMF3rxaqQs+jUabPRs2kz0416S9x7KNvPAA5b09EYk69r+IPqaMgT46vYU9DCgqvdOGHr5umV09sVVXPfAUlD6LsD8+5FmXPtMVAL5b7xu+O82lvcN5JDs40lk+DZ91PjSkgj5NR8G9Hrv3vUIWrr1QNg4+ntoPvdGOcL603+6997AgPG4iFj4soH2992govXE/2b1itEe+QHOdvW8sxL3hBMY9oq9TvV8Ozz3b5N29sGK4vVGJt7wg1UE72XWGu6bC5jwZIT29HGHCvHovf71tMoI9ItulPI1xTr3cilA946zRvVLnfb3tYB2+UzJMPUDQMrxSet+9r6ikPczbLTwrGta97e8evqhAmrvFWsS9HlWFve4uCT5zvc27SWhQPnQlkj4h0jk+AAn5PAYvWj6R+XU+HPFRPjeipT6y9UI+KMRpOwG0DL34zK49jS2oPb3ZvT0DVhk+2pRWvmxh7TugOia9Ge8cu+w1oL1RV2s9kfT8PAE8dL6Cp2+9/mlDvb9DrL1U6qi8zJ71PM5czbxL2Ka9v56ZvMvpNj0W8b68DDYdvlrZ9L2KyhG7tW/gPEzVgz29WE88Kk6lPRrYeT6czNE8oPs5vmn3Er5KPQI8XYpeu86qhj65Shw+OoIXvfebqTyP0gi+ZtjlPVmz0bw4YRI+9411PgbNrT3lgQW+4g+MvDPFRz2RMx2+na0JPBRqST5PmhA+F3Jbve3bCT1HSqK8eizIPCGGYL21KAm+yoqaviilWr4rbs+9t6qLvOgr6ryrDpq9nJkCPbnRebwxvpK9L3cCvkG6Dr0WCRq9eqbfPXHGtz1j0is+Enc5OzouFj0Mdk48BNHWvXDmRbxmjB+9AnqUvCCDDT2Kl+Q9L1vsPVpHHL7ndr298dRkO0S6ML3ZXLS9F/kJvnKK0r3/EDW9eSpRvXVlT756Yso91JoHvbU2m72gDcq9IUq1vEt7Gb68RO+9ngxlvTqH7rwUO5E9aYD4O9+FjL1N9MU9IfzbvMUt5DzWOde4DElBPTq6BT1evmg8Z84ivM7Y37vv5EC9n6P0vYyo3rxJhZm8mERaPTwlxTwP5Qk+vQhAPXarmz2QW18+z5Y/vAglIr0qeLk9tbGFPRN2MD0PN3i996tou+bZbL3emNq811u8Pb7MVj6Ri609N+oEvvo4wb2AYXA9gPRIvYGwAT5UFv89IubjPYnCBb2PkCc+hrJGvYCwE77NKv49bh6PPTjiID6f2168F1YDPeuPALzTiFg7OAExvlUYJL4O0R2+m2Z5O0r1mD30aY+9TO9XvPNHh7xdLja98l/tu26rOb0rZqo7D5GRPA5CGLzLoVk9P0/svd4vjr4JSW++RLA/PGy9hz2sO5u9Q2BHO57ckL6B29K9PhbCPUk0Oj7Af5C91kVSPXjdO726pQe9YPubPiblsT6P6r0+9NWvPTVBtb3+9MC9t8f6vUsDjz5ybto+CX1NPmLcgj24etc8GmMOPPIuHb7+RsQ9KTdlPSzIfD1YtRG+LuiRvXaTUb3Rmd68hCBRPv/KgD26pbY6vWEFPSmAIb3jare8KfHvvUpCB7525xO9Wpz+PXg6BL2ZVlS9A0NKPZoFtb0+XWO+sxS+vYQSAj5Qm3k9VQXFvbl3F76A+JS+D37hvlGGv70Uc9U8BfqovYHCBDwTG1K9YI0XvaGmQz4MOqc+itaWPijbbjxWtpm9OCTbvGL1FL2uG0c+70nVO2j9T71H7A+8j/stvMMpur09TvO88qLIvWfo5L0yjCO8J7caPMe/ujyTtFO9XspIvZykIb1AEaS7uyyNPafI+7zFlBO88b/ZvAt7BL0P1pQ9GafvvGfx+TwOfzC9+7bMO57zvb3SiX09vfwHvCmcMj79kb09+TXgPLvoSTdS1w094qkiPjJsHT58J9Y9ac30PTBx2jtE/g08/hh4PZ8Bdb2hmFk8XXGZvRvMYb7Jfcy9eRclvJKhFzx92y++txoTvnz2+L3pMdw9TVA4PSr40bxmjAO9H9bxvX/cVT6A/yI+V1FwPV1+Hj1Zwp28rVK9u3Pwp735vya+cKfkvX3qxb0JUSG9RMtkPW8OzLzTm8q8/F8hvZytYDzBsIq88SSNPWc3srru/2m9SlQkPcGYLD7ct709ffqiPdNioj0hLay7yshnve4DFjwK9N49nK0BPvCBrr25wCC9CXGbvV/NJjzdwmg8lgexO90qKr3ltYi+Kh7GPVEcnLxGdkK9dQGUvAWh/bwvdhi90tCpvevYBj28qNi8IImdPds4SjzkzIS9H6JFPif1ODyQNj495lGqvayE1zwXT1e86HtJPU7zwL1hVaK9TopTPeARvD0AbLU8FqsKPf1CnL3Edhi7LWIxvYkGC71A7Qg9MK4WPq4UAz3NnpQ9x5rJPJpXnrwhGPc7A2m3PaJRs720KAO+e84Cvg2TC74qb4w9QBRNvBMu2z24tL29PdV9vnPthL5vBui9XsSfvWIsRr03Xfk9B1wPPu79UrydpBG8HfPKvSaWAb2gVbS98zjaPW6SiD4S3Rc+Xb7tvUUGY73VHpW6A9uxveIlC77h0q89sD8cPkOyGb1vRfC9STubvc4o6jywoiA9mNlMvGDPl7tadau85j+pvfwixbwKdUE9OiIdOyh/q7zGZkY+hneFPbs0pT4m7EA8m1WWu6OBuL2MROw9sVG2PqLrIT6OpKG9gDKCvUbXmr03Toi98MpYPtENLT7AqCG+WIAov4F5kr5SFKC99m9dvQY7YD7k9HI+Mc8Vvj4Hnb7Z8Yo9s9MjPW8Xlb3kzyw+9yM+Ple6Yr0l/a29lQyVvUlvArzRANm8qv+PvXdAJD4FDCy91ctWvaD9wrtgqJ29LELAPI2Htbwup42+dLOfvpQScr7B7im9248IveWiqL3pEmW8EJCTvOzOgzyUROo9JfMRPWE3qTqxvWE91pUKPI7W5Dxbg9s9WL88PqTbEz1KZYk7HK6tPTVMgL4LxRa+8N4CPrN6uD7bpkQ9+lZaPdGYprwyiWy+xbijvuMLDL7fn6q9wckSvdgh77yyYfU8ZNa1vOXiGj2gnmW9rubHOwRC6j3PfZw9YElwPY+4Fj6kdl0+SovHOivfEb4s9je979OdO+uylr3YAP29uFFFvpocY74EoCK9LH0QvnbIcDxXEDy9v2rtPd/HD73P98g8rxhzPXqlSD1J5I094nOTvW7T871EhEu+jOaHvsbtCD61mLs9MUojPaGptb32+FG+Vll1vsmtdb5fxQA+4VB4PsIIfb1vW7u9bWYDPooJGL6B/ww9V9q7PmhYfj1WlBI9p3clvoFhHD3KNP899jPpPRNdkDxmuhe9EZ9evbK+Gr2mq4e+tBilvW+N9D2+e7k8eV9vPCQNlb1zqec9a/2kO6PhAr0eXYe9mr4BPYJmAryuq7k9QmamPR5PPz4mH2g9UxaaPXtH4TwOBRI+k9xOvOxDJLtAHBu+bh6dvsh/vTxUOiw9wvYuvUsLTLzJeyS9P2t3vrhUz71iDao+tjuEPhHOtz0Nutc8GPmGvRu7Pb7ABCe+3XSVPm4/qj1ZLpW992xPvQhbojsL8oW+ZuTOvoZ2Lb6WTxC+PD+iPEBEqbu3+DQ80RRyvb6/Db41ySg96SQIPXffuz2gXmK8mr8iPaw7pr0T7Vu9gU/xvCnqijvKyVg9s0evvQzicL1I+Wa9owUxvRactz2F/FY9NH/VPa/oST0R90K9YBxRvgjXLr5cihg9USKvPsi0gj6DszM9GZebvcAO0b52hMa+ttVWvryBHT6VvWG8HWuFvJ+q/L0GWx6/7Oobv0feDr2r0Gu+I8jLvVZVDT0C2gI9Lx9uvgfRRr6lZ3w+CB0RPkfatz3sbHM89+anvSbNnLxavGU+RmjOPoZ1Ej4fnOy7ogO1vLmkobsO6pC+xPGPvolM971ThWQ7fjVUvWXcKD1Sr4U9yHCPvJWAXD3yT4w9yZuSPQIdsz0nGWQ90OyQPcg3tj0m4YU+7PpGPohlBz4dJP09MdUPPruu1r1IoXA9txVYPj+bHz65xSa+emlKvtuvsr0JpUu9Y68OPYvQaL2z5dS8JBzmvknlEr6IlYo9kBKTPMJrcr2q0jY9EY8avrotVj57je49iunlPRx+G7vjYPy8TCK9vfeiF77+oFI8Y5m9vbcR+7xXRQ69SQEuPdPxlL0SS6i8FWTNvU43B70x3kU9xczLvA9fAr05rwk+YGoWvppd5rxUWNc9Ve6IPYDNhL2lmwe9uF1xvVXqAr7CNui9Ho/hOyYzBb7Ws/g8/X62u1u0Br4PQP69bjJNPjAEIz2Qxng6DB/wvDwdiz1kyTS+jrBlPk/fAz4L/Le8sW6QPNCRrL3gXMK8rQm2vRdemT1kcyG76iYovmPsGjxS6G28D9g4vS45gjoTqrK8vcVQvXCE/TezR9W92YV6vU+vPL289mE7uk/Qu/B6Dz0nSyi97WfBOxVHgruquGE+LCDsPeErF75cdJu+CXMBvjjJmz2SW8o8z5+XuuOjoDw4VXe96ZtdvlBXMD2Lb5O8VvInPtBROjxqhq097J2HPHQUUz44deI+5oamPTFckTz5C5K9zXFoPVTiUD3NAaw+1WakPUSEwzkDSMG9oW49vnWVA75I9Qu+lzN3vZiJnbyqZAu+m7WQu2K0LLuMyxi+vyCwPZl0wT0q6ZA9O22ku78vOTzKKFi9SmNjvWTbV7yW63Y9ZVMuPeeJJ73RePs9y6bUPcSPQDzZ6Ky8bcMDPZ9guD2n7+o7T+8vvSiqazybdVa+6XS7vmVcwb06fkG9y0UCPVR0Qz1D/dA8Hf1hvpIevb5+xO2+gwUYO+KXX7xY/Ym94sF3PdXkHL0CQcm9qoFivf21tTuFphq9t+W0vU0paj71mm0+vekKPn7hCjwpBm2921i4PT3K8rumx2G9ok4yPoF8OD7dwl28uuYuu8m1/byvLdW77bgmvb7FtL3U+Xy9Fa5Nu9c6ALzaG3Y66DygPVfd6z0ueAk+2nFMPmu/GT4tBA69cXCDPQA4+To9/ws+JhaOPbZ1nz5eI5M9rmxsOz4YcTyEAtu8yNI+PDooET4RMb4+l+KfvVpKj7xA6ZO8RNQMvpjEx7u4/PI8O12WPcegQzuA2KA8b/8qPVS7/bmIHLO92TWxvdaum72dEEa+aktXvTUQhzyBk6W98z+KvVKvDL7eu7E5rFikvfI9ujxRXLK9RZ2MvUAXEz2AtD+9QtFKvRYRFr3EWcK8G5b3vDSmjbyYsSq9B8CMvZlVOL4qxwe+mwbFvGkyEr3bVZc9klhIPNDPur15Kvw9jH+2PKS5yj2YyTW9Pq1COrwwuL3j5da8vVp1PacWKr21DTy9mYpdvb3kVDuqNRO+LNaYvoHWuT4uPvi8BSihPcEwhDwJ8rU82HgAvomjHD7cTfS976RWPkavZ70m4Tc7oQUmPax9JD78Xg4+Le9SvKcKpjxu/mc9+PiJPLWzNr3nUhU9K+gfPSJVNT7q74s9NM8FvLAb3ry82aI9fBs3vdrmwzwhIcm7ejdcOx4FA75qqRS8jSmPPfEOtT6oRwI/pA9KPjp8ej4yTOu9LfeTvSQiPT6JMoe9lh3MvfUCs70Q4wu+CKRqPXAvI73fiXE9cZFMvud15b4oPA6+TaT1vWURKb094MY8/vHGvMNaI77IK7+91a+UvgxFY77caKy98L5CPUpGgLy1EbK939TiPOD4Z76pzzS+Csg2vWCf3zy+MSO9U8mhPXgKvj1xGMg9rQQrvaHb/DpHHmU8SOV3ve98l71WDvG7IDrKvSeAl72sRtW9g+aOvW2WIT5iu1Q+m0BwPtlRYz7vvCU+D8+9PZCCwbrJ2A89/ys3Ptpelj4Q+fY+5X1gPjY16j1mMaq9oiIqvg5tar0dqSs+pmFgPk414j3Y9jg9IPnqPB6VpLrJpVi9wI8ju7qKPDyExby9GGeavJrIN7rUCvU8lZFfvY6N6Lxasri93cV4vXUgnb08Ebo73OWKvIEHQL2tE3W9aCwbuwvyDr11rvU8cczAu04IN713Oz+94WiQPDulgb0Qkj09LQdFPaQ3pD3Q2nA9UoThumzOWD2G29S9P6APPYHUjLz86T49DxctvZi19b24t7I+zWeQvZ7IRD217OG8040Fvv4F5TzABaM+bERNPpOFA76D5ow+a7MvPKz6sDqawBs9eOjAPM4c1b1KtZK+YA+RPf3L8z3iXf07ZLejvQJY6z07Yp49JEMGvt3EQb7zs8a95oMqPOVrEL38gE69zKd4PqzELLuHI9A87G52vOzR2T0pEDc9HNC7vcz5FjyWsp+5kyUtvX2xmb2ZbaC9zX28PL0T6jzOhJo90jkhvuDNzL0333E8s3wCPmO6sTxtAwO6GWYNPEMhfD0YiAs9GjA8vYJBOj2irJu8PoLHvDooxz0458w9jqy1PWrmiz5scAu9f8S1vdg8vzwGV3g9I9I8PfntRr2dlDA9RlSzPDIsnr0177g57YlUPZvB8bxlN5G9EKxGPFM2KL7PK3q8jyYpPSB5/D1CN0q8Jkm4PKhiSz2GYoA9zv2lvD5LaLw1vHS9E55RvXfCADyAc0O8+aATO/iv8z2eoxu8KBbsukU4Ob4fat286LbRvJw/Jz19zxC9RjcwPX24ib5v/yE+Xyd5PKV9Nr0Somg8lfgbvdYFAz3NWzu+O5NzPjUFPL1rc2I8OFINvWExFb65ahu+GY3WvZHvJz5moiU9JJCEu2rTvb2+6NY8I7YLvqEigT1GFBU+CEuoPJXEjT1TAl68QJL4PLjINj1Luzc+rZEpPsKblD3v4Ve9Lm5huy20Gb3Rh0299TgbvT5rKr0w2ia95s6ZvRxMcz2GaAQ+ADOZO6aHtb3DKUy+1ep5vlM/NL5x4Gw9wUJ8PVNFoj3ECKU9yhBYPujNrz5hgcw8nUg4vdoGBL0/xlY9kI5AvQkb6j3LdZI+LPuhPoWPDb1BgLA8IE26O1bzSbyI5Iq9Wj1JPR0xCj75E/+83zkiPaWVF77Tc0I+58FdPpDZQz4UcjO+uX9tPENJLb2C3YY9GmB3u80qOD4KDDI+LxVivdHjsz3zAK272fz3PCjMAz2ha948yVUuPYNvgTy3OwS8992ivQBXdz3q6sI9UCv4vHAYEbwdGZq84JqHvNRZUr0r1Ku9L5H1vMZbqj25eAs9tH2wPZeJqzu+fAQ9/JhwvVzZlT6uGuG85i1JPnmXZ7zs6l89DLmMPbCqzz2IwrC77LW/uxNW/rxo5/I9rXDLungZB7yyBFK+x0njvauncz6/nBS94x08vT5Bhb1xZo89XYEHPIlJuj5Qvb8+VysGPk6cwjxoKBu94LxBPRzKvbyuIQ2+lt/IvbVlFL4l4fi9BYuEPQtuHz5spUQ+thvgvbv25D53h3M9m8covuPXdb0cQL89vkOTvRgYbj0rYqU+B/R8PqOMTT09XsS8fA+MvazWS76Uqr0919PMvm6rpr1Zl2a9FuIsvO1ffL3BC7a+07ysve8l3TxFqC++05EAvnlwtL10n2C8OesGPvuuHL4BXy29OYOJvRzbR76hnQg8CY3gPLih7TuK8w09oPkXPkacFj7C/TU8js6BvO2v6DvjDku9iUACPYvUkb1j0mq+tiqrvP3blr3ZOwA9SpBlPb7GlT0EBme+smWwPOt4FDuv07O8guDwPK1dAj7rtpq8ohi/vasNjL2KHQW+BO0uveFBszy+QAY+JqQDP2kzsb722Pm9IIPMvUfcrznc76K85aenPCIxFjxlbK+9bmAUPXiM8LtL5Ng9ZJmMPONWrrtKKc+9Ke/9vS7dAr362oa8R99KvX4O6jcigUu93v01vUoDH7z5YM29VE2XvTlo2LwWtw09hk1JPWp+bLwRlC69Jap8PRZagroJjtE895NMPYto7D6eO0k/G6uuPlANqb1Czka9rJAevb0SrT3MyoA++7LPPq7bgT5zI7+9YSgMvm2dDrx01Wo+LgpxPZwm4jtnFio+eV8FPiJRkjqAeMo80KoHvkbPXT6X8Wm+QJqrvnKWvj6iYlk9WTbYOx3n272Z4ZO+j8TXvmJMtL0rRt2+T+xIvnjrKj3rFpI5tKftPON5RL4/uwi+Q7nQOzO7eb0jXB09Ml1qPcZqg73M5ve9ps73u3Qzhb2t4Ku7OM2avWMmfr0eapa89AyZvD5u7r1RciY+QXg+vMDZAbwzKUC9KQbXvY9q7D0aPRg+6DIMPt6hcj5pyji9+5HpuyZeDz6mXVo/dqKlPrfIhT0Jc1U+tyCzvRX7fDuGHSw+nmkqPtNgQj1qHqC9apVGPk7eHL11JdI8VwaKPIUQeD7kNAM+2lVGvfihYr7amfS9syxqPByTbDxmWP495zYdPu0F5bv0sIA9U0ghvbXLCL03rfy8DQlWvKv/cLwAvmg825fBvAbIRb3N7H49F8AQPjJgozz46SQ+i6OFPeGSzbyzTvw8IyQVveON2T2wGJg+etZjPrw2bDu5dVO9fLzovf+2IL0bc4c9VlQfvp0cjL44BXw+2Tx2PvD1VT023+i9YCWsvZxPhryQJW6+fDCxPeur/T3CEm29F28gPbW7xDzShl2+kNimPA/HgrtwKCe9z36LvW01lrxlhH09m0d7PT81bLzmGIw94m+UvHRYn7wf8Mq8lQffvJhisb3TgM+9Q8G+vSrGlLzQco28CI1KPUHlbT794yE+fJ+8vbSZgb7X0Ks9q5GsvRdyQDyr8+g9AjEiPqfBUT5ArTy+M4QzvQynQrwyPme9nzpevZgvfD7j3p08QLYqvXkrEr1mtQy9W7WuO2IY5z1viTk9HbTgPaYB1706CVa7GDkKvr+DjDxVpqO9hHQLPXoXML5Xdls9Zcz+PSFFz7wbH/s8WnVjPVZNt7wHCtq9SsnZvchdlDysWYQ8NRquO/5qtr0SlmY90cjBvbLDar0O8rs9RC8kve56fjse9Kg+iv7VPknt9jzCuAW+4/ASvanY/rzsVko+thgCvsiJob6u11i+R+0BvndCVL1ZmbS67LaAvf6KX753FBS+ajnku6KJ+jx4WBm9TNJ9u2yBpzuQuDi+X3iavkBR/r4NlMq80RlqvbcDAz3JVji8Rcw7vo1LFb6aGIi8aB9XPpoFmb0GO6y53AUAPrKDVDvTFZe9+rabPRrsuz2wrla96JEHvIL6/LxnTdy93s1dvUKe3b2zCW+9732avUk9mD15C568wtL1vX7tCr7Z5bC+B9YkvjWEg7vKxgk8Q3whPSjsEL5d4Na9xR6VPnQnPT0RH7e9EfJSOkQekz0/nkK+5jpwvm7ouT75LTQ+G48OvRTkMz1257+9IDqUPaMOFz3MfXs+PBLzPaO3Aj79Vni9bHkEvb2FFz7mKyA+UMu7PYWqUT1D8Be+/nIdvgixtLsay6I9B0SwPYCznz1PRa89oWMGPfrKazzeGPc7O4s8vQ4+hryZMO87ry81vdQ1gr0w0b28wfiOvbFeND6WBx+8z8bXveKju73GvIs8LFgGPqZBMz1/WJs+DQ8DvmBUcb03eoE+GHMcPnAJCz3BiMC906kkPU3/RT6PW3U+D5v1PVgS770Ioc676AXWvY3SwD5vWac+EzBnvhLeaTkWDLu9hJ6EvcZQGr3m+1S9zLNlvr75XD1GN7c9379JPQXtOruPCVO95dJTvYxrrL2Cwhg99tAevJpZgbwq6jg9ZPylvCmqdr3mkwS9ZDbyPG32ur3+Qj+8hGGDvEr6arwRQ+c765dNvf3swLxwYW89Klo3PqOiUD1dXIK9r92wPh8m4z4BM4M+qJmWvY0TcD33PKa8RSygPDdK+j3RXwQ/D5rkPWxGuz3h36o+RWN+PJvTIr3TIYs9HfXnPfr2ITwxkY8+3+MMvWLRHr2UbKo8Ro8mPo4h6D0N3/E8T4eTPAufYb2MgZ693gMlPECL1Dsx9xC9nNG3O8M1Wb0Vn7S9+tSSO+q/dj3GCLe9DHLePcsPwz3IBtK9+GQ6vZu9NL1UU389dGlPPVz/eDylyUC9NongPdOV0T0f2qY8kf8tPNu6pL3Uh8i9Sw/8vQWZML7j7ka+o8Giu+TrD7vqQ7k8nAMzvHGKy73NCBm+nT2pvSjko72olBs8Y2qGvcb0k76TMYe+D1ovvnVH7Lzn/Hu824kpPfpN6712kRa+gogIvvg4M748nhW8DBZwvZMk17tPl7W8LZu3u9eZHDuvfG49DRNIvEtpFrwZQaQ8jV1zPX9/lTxR34E9pDPbPFJEP7ziNxe9xtsJvd+4Vr39LEO9ORUBvrqrNbyurx4+q3MtvOb4ob0Yd3K9imwcvkAIF740wbs+a8hGPrTuCT4SrXC8kYYcvqLMID4T/6I92VDWPjn6cj52OiO9uvOoPGhro73zQdK9I1yAvXdXUT6zj/O9K3bvO9V90rx/TKK90j2hvI7aoz7eo2I+yVoGPmGLvjzkhHu8d3Y1vfUSBTslG6q98FJ2PQZUQbzNAcu8Clf8PLpQND1K87u8KLPRvUg9ur1TzpQ9G+ECvod3ab1emcW7tB3IvCcDi739IxO+jaTnPHibq70mx3W8X1KIvOqIQzwKZ+69b7WnPaNEdz6e5Lk9Ot9RPReuyTy1BNy8eTqOvGOpHr722dq9E+m3vY3K7DsjGq29CYICvm6Cbr65VYk9l7i+PEBlLz3FByS9+SuovE3jRrxaMtw9212PPc9zx7xzxMM8BytgvcX+5Tobcys9F2WmPAKcDD0FTjU9YvFmPGFrdb39zIq8AxR2vVd+Rb3ppPC7dSQ0vUXrkLuLylG9ot3rvWHP+TxxVsq9jcd+vZMwPT2TNWO9OnVyvfLkpD3JeL0+n2q7vdquB76hDG07wB8PPUzAHLwkhjg+NA78PSOrjr7kesu9TmiwvKSt2LztpRM98y3tvfTDz72a85K+HX8Du9yswzyegdA6VgH9OqXAprtBJtk9ofwWPqBSO70sJoc939IDvAiD/byoaxE+evCxPUPbFL48tDa9DqEMPVI5kL2kiFc9dOcevaOdKz2p4fW9HY2OvfNTNLzODke7vs8jvex/kLw5vw2+9mmqvdvP3zza+rs9tUk5PFJgvbz0jzc9mbrNvoTO0r5pD7s9kjAovFhmvz2TDYa9vQcyPcnvYD6I+5U+13yzvjZQjL5nU8q8HzVQvaeuTT3X+BA975b9PbdlXL4irKm9fHiFPZPU/LwDq4k+tOhxPWQMTLsAyqQ95hC2vY45Pb3S/EA9zR+mO9asuj2Mq7Q9DW7EPX+I6btq2wK9XiZqPe9Ccj135KA80wBQO/IVvDl0tlg7X4PWveTurDtibUw99X36vPETrD3bYy09ZtWkvec7YT1DGQ49ThGlPHhCBb55SwW+iBw1vmwLcz1KaKK8U3YTvS56ez1ZoMm+nOiEvUblST3leEk+vEYZPSWh9jwkPCW+ch6EvieNdT3/zse9Kua8uzdomjz2g0M9595avTjBbT1sFKo9cCGAvQQSNz03ydE8Nq0ivSPxdT3H1lm92hmvOzEdfD1vp6E82M4zvdfFCrzb+nG8yaUfPBqbVD6XVyu9txe5PHJCrT1evpI9Zx0BPUG/UD7ftVM+m8pYPuVbnD5HKp27qxmcPE72mT6GX40+MaEZPrhAj7xpTOc9VDUWPJDeur1Bki++uCIqPnUV1jzVNL0+gBp/Pb3V+L274oY8ePZBPjX/fbwRGe88RnvqvRNLA77nLdK9RKxsPdrVBD5PR9G+COSJvRu7yb2o4hO+3X9Xu285mjzxTAc92OYHPQcgqz0XeIM9Bt9XvUzosjzkRZ68RgSEPP8smzzb+GQ9R0waPmgWJ7ytxEM9gd9ivQMb/731lug9E4E2vUmyljxorEA+GfWjPDrdkDyTDU2+TGsSvejJcr5XU0w+GGVxPpF4ojyGs5K9CW8EPvaKuj3adVM+AM8OPhnG2709VIk9BufsvH08jb11klm+8gjxvIOo5j2LfqM8Zd4svTc1l73PrH2+RHL6vmuyIb4IXfC8nBMFvoYLDr37uAo82BtQO7ylsj2Rg+m8XkBMPbAUGjxPT6y79+oOPUbNTLwaTmU9NK3avElHYL0Vk2E9GIMmva3Dtr23zQS+BUXuvVaRvr6vpbS9HyLOPW2gPTxJI309fjrTvS7lsr4oPVe92gu7vc56nz3PMaM97tUEPsjE8rwjtPK+2rxkvrf55D1tmtg9549UPJoOl73ISm2+gujLvj7AE73QzEa+h9BpvoPVjb0Owbk7gwIfPaCO4T701BU+sJTJPFn0xj3PtWa9gJFevVpq3D0ddfs9VwcoPlAvtrxdoYw9olMSvPnixjxqqzu8XsI4uklyeD0ewoy9/e4avXKCFT0pFJC87KDvPCdCQzuhifa96GFuvsCAaz2K7rG9Ii6DPSvMkryJG2q+y7favpWLDj54SYc8beQePsXWlz34qya+Vc1dvgtSy77x76a8cAL1vP/GMT6kHYC6gCL/vBWM6z1sB0S+zsmhvkUEer5etgs9qtpLPdlVyL0cWHm+5CwEvnoalz1fkn4+eWS2PcwiIbrNiwW75a47vrOiEz4K+NY9uQhtPRDK6jyO+Zi9zoJ4vYv5HL313CM+UqnLPaK0ez3jmtO8Zak2PAY37TvOJ4g9djBwvJTKAz5D2A09+8JdPWjbUT06Ce47mYQuvWLenL0EXAw7nz1ZPgs0dbw3tei9wRGyvKIw0z2UdUC++dVUveYUNL1cDg2+aXoJPAnRbj00Zn48TUNHO+dShb5v45q+RCCUvZkAUz1vNHe+ocaiPTGPeDyNxre9SzEUvhVaAj1BPH094D8hvSi6Fr0gL5i8PwSYPEXjwL2ZSLW6Pm5ovYs5z7zo2ES+lhKvvRjWHT7o+LM97APEPa74pT2zQwQ7cEHtvOs3rr0GxDK9mtWIPqJQQz7Z8oq91UxTvW1tYr4iEA4+f+l7vmW5Ab4wmOo9aGEUPWH23L0PDK++xuUlvhybjT7zU34+8w2dPTbACz7ZTyG+iOnfvBQVK76Yr4Y9901vu4VbgjxDVhe9UG8Tvp+mNr7kjN49jFrguYd8A70jwQo8u3wuPYRDUbv0HlG90hZSvFlEiL0kdhA9vppQvSO6Vru3vsK6iRd8vWxP7r26Gks9wugxvFKImTwg5M07e3gMvgjekL1TniW+TA9hvX+iTD6ssJS9x0uMPbU1nD5HNRA/FTAvPy1K9r07+dY9Lf4KvTD0JDxqgZ0+1YvZPhygOj4xrpQ9qSo5PgRExD3ooOe8hDOOvQzFHj7j41w9RxQlvkiMzTxrlAM9CSjmvRd+Xj62BKI+X6SjPlaZx7x8InG9d7rrvA/po71yuQO9CnpXvISZrDwOpFU9zzGEvWHBlD0lhhA9NsS+Pdsh472dCg690zkpvYh7qL0I2BK9GcfPvSVVYD6pyPA8jZ5Yvcms/r1hrTY93JQvPfBHXz0L8fE9CduFvvWSxr5wQFw+Vl3XPdBoYj1L+6c9+3gnPkjnKz78A6C+8BZDvsu0KL51RbY8Cko8vVdZnz4kgs0+UwVyvrpEaL2aPBA9VEgHvKgHs71Aezu+/8KuvssEozx1iHM9vBjHPQPN/byv/c88m2K/vANAfr3xAgM92v/GvRY3h7u7nNQ8jhNnvbDl2L12bq+9/0+9PBVbo70MbNI8zlWSvXFaibzkXgs7VJUoPXE56T1sbj6+HfZpvk7a1jr65WY9HkeCPrW0Cz6Kn8Y9s2MrPYTRw71g+Ri9b8INPrCdjz7Czvk9YsPhvWHwD77/Ehi+luGlvDmKh71EwAm+X/yuvsCJyb0bYha8NZATvq+XPLwNVMi9J88KPuNyXj5qXYa9EEjYOyAQRbw2G0S9dvQlveL3oD2GJh0+3eA4PhYI4T0kz1G8r2gGvJdGOj1l2aW9HDo4vd8+1j5cX2E+0L+4u+qalDwcVD29/VtavjQMg76x7Gc+Um2iPENxQD7v/su9DX5BvSPrbj5PFDI+HEAOvqiRTL53zh++cB/ivcDHCzwJ56s+k4h1PiYLkb6KD+++B75Xvpy1Nr6X1788oaEdPgzvHD1joDm+MEv+vnWTX75maHO9TmXhOyRn8b0I5JE9qhfAPViGwL0+WIo9TaIrPYlkPT2F5vw9ztzcPGZklbzZ/Ay9VwwSveYXIT2GfAC9UiYKvtSfaz5bR2A+tzyAPjeczD0sGs68aUrVvXk9yT0urNs9uu/gPXkzCz6MC9q7znjlvQ+PcjyUxna9TKSrvggB177wCtK+VyTpvXq9Obzfwk29SQgbvrp1rL1MiVy9kkSYvU7Iob1ViLy7nK8Xvvy//7yC/0Y+GaFmPg/4s73Qgdy9karyvPi8Fjv1YgE+NYA6PsQ2mz3y4kc9dCtZPHkeGb0qosU8acclPWTTHj0hasO8HPawuvwZgDyf0g46aUHHvD3jyTwUPxY9EwZxO+070zyqO169VcxXvIvEcz0RPHQ901egPP4mCj79oEg+1ZaJvHVGHL79lRy9iydTvfeKor3SmxA+KjHoOp0RKb5TszW9eORRu1H+NL6Ae1m+4jwLPgCttb1xURO+jZwvvUf0d722jxe4fjN8PST/uT0tAxW9u6LwvQYBkL1q+469xE9lveSMTL2i0h2+pdfnPLHBv714Mr89SOgTO5EyJj65C4s+WrxKPp3CLD2oQes9Gi2NPcpMLb0NOPu8VIsoPXHw/Txu2Yy93k4qvbjoiDyrKse7LDODvU/Rgr1LxOK9PrTIPYYMzz1r9qW9R8aFPQ8rsrxs1hO9LsxOvYz/lzyX1yM+lnqkvOGJQLumm/E88hHQvZAkoL1c75M9t6oHvRxh5L3u+D49jPKYu2g3yjojBiy9iePXPMbaOL73CmA8K7sevbg3Hj2RmmA9OCjLvSAAlr2Y+Py8mt6cPVGmljyWc8i8k4KUPaI5gj1f/Oo9RHktPlk3dj0ZdMw8HLWjvN2IE75g8AS9QhmFvWdIUj3Xqqm9fSBpvWcCMb4MeKm+aEecvsgyDL5iU469RzczvWEz8T0yaOA8GLoVPo9S+L7U6Le8ZmKrO/yJY71qKKe8CBTpu8JW9j2RHHw9xVFOvQABfL3pMow9U8XIPX3bWz3/dU6+kplEPlkS4D286o8941ZXPZKWYz1IggK+ElY+vm3OvT0Lm28+jTkrPRM96rz/mYW8DAdtO9vK+j34PBg+Do4QPk6jsbzazIs82wIjPWfaLb34KKk7SfWVvbYlszwdYHu9cVJOvc0fEbySsmC9iI4uvquRcL76IUO+oxQ/vssyQL39udm7txmcPQxxkr00u6W+d486vroO2b2ZcDe8Io9yPT2fTT4EVws+31l9PbhXQr3QwSG8pNrrOyaMoDxZGR28Fy/wvTewAT6bI50+p49rvXgipzzL0NS9YCaUvidtnr6l6Ds+z0kLPmY1nz023Og7Z08iPRUB1j0FwAI+UnBYPthXKT7vHw4+g5aHvbkstjtD9qk83MkavVV75rtQtsg8CnKdvV51xTxXsws7J+8lvSITjL28z807Ki+LvSZkdTuhWwU9GR/eu3XKsT17rEU+HYIZvQ93zL3FwNE9X6qYvbF1Bj5M67m8TM58PS8J3byuMji+smrqPN4AAz2+JYq9DHgzPb0W2rnSC4E+JM9dPc9dC73NkDU9/ZQLPVxCb757vIa+u+bwPV+msz3UyPS6gARKupjj3LqUDtc8gza4Pao6gz4eZ3k93kXiPKFkBD3gGYG9zw4TvmI6571hfBe+zxouvg/kQzwWwum8YHKOvcjfb73Yc/g9o2IwPoXe+T2U6MC8XMhTvYR+nLyYb7o+oqFtPoPcKj6kspK+lSthvceu+TuQIYY9kptzvaEtGL1mkCI+xDZwvjuuo778woq9szOEvYBROr4p5GI+L/C3PTgyQ77UNJG9ftmJvW4mW7q2aTS9Bfi9PI3MfLyeeE+9TO+CPVH6pzxczjG8A+imvCQMCz3+loI9qg8yPSkorT2X2Vo8aQxVPTWqSL4xC0U+S3uRvN02CL3M/569m74fvafC9r0QVAQ+kH5IPhcrez0oT4I8G/NnvuPu5b0IThc96QnRvEAPcb6ecMe909KtO74eyL36Mma6OfcAvq15vL6/5zC+PwbNPbHxYD1+M504INQnPS3UJD2w0YA9tIe6PiqPvz1CgMC89mqfPXO0rz2KnZS9W6X1PcsiUT4a5+q9OxofvgCldr2T6IA7toY/PWiPaLxRwNO9vV+rvUvH9bzTfxC7zeAtvW9cvrzDUZw8nNKfPaA807qiQ0U7WamxvExf4brCOSC8AXsovs9pAr7f4Yq7bav/PNlHnjxHboI9dWmYval4Ob4bWVU++8fivRsE3bwYnCe9aJtYPNDrWT39Z0M9lXlQP1wTrT4/IIi+kNeZvZseQL3Pwwk9B/E4Png8Fz8/WRC+qiervlEJXL5+qYY8gcR5vTzb07wt/Ne9ZpiOvraynL7vpt8968MbPb09GT6pjyK8cXBivv2P4b0PxJI9uMRxPnJX4jyqIWQ8MUXBOuqZNT00h7a9nwZhvMS3ETxhLUo9s+fTvJEvlTvvrWO+gUknvmiXl76oEU++7+gCvjkuFT5PO6g92OKEvV+x/L1v2yE85QpAvBORUb5sF9k9XZqzPcmXf76V16S+lea7PkQGuj7W+iO+2FJJvXE1db2FxLO+kuYdPpM4Zz1ScvQ8JM0dvpg+vD1aaho9wQodPvGSHj0firc8KRqhvNMT7Dz5QlQ9GW2UupSMqT4uZZM+/+bdvJhExT340gM9zn3XPCIek71g+209CYizPaXthr2HWc69ctxyPeaHkb2nkKW9HQ9JPrIbez5b7AY+XK5JPUYoIL0fR608WUHqPaB5Gj7mj/I9tcQ3voqCHr5h8qu9sVo1vHNpdb0mjw0+uhCZPdS0P75W2ZO+lhmnvUzf8r2ZHpi9shWqPp8QAT7kz2u+1xzfvQHleD38qm+96osCPgfc6T0VqJA94DUgvB9fBTyD6B49URUDPY92/T1XdcI8wXm0PceFajt24Bk6+vkuvdzjHjxg3xa+plzbvp/F/b0NB8q7g1hDPnnq+r0Llpi7ry+LvSkoib4TVoq9TveBPg+nJz5R6Ie8AM78PU+l1Dz2fIY8/mYDvxre4z0WWpk9nGISvk7kC70G3RK8PlWFvt/ub76XlWy+qHrkvSmWhL1i6pC9zpMqPSli3T2rjN09q3FRvhP52b20xzA9uka1PWCcKT58aSU+m/KFPV9+TL4SzQg936B+PRF+7zybDnu9/C8KPL9reL3wk508R0QyOug8truSPPC8wNNhvT/WOz1s3Ry9FiDyPMnMirw6ud08DZHTveHVkr4sJg2/e7eyvnlNrb2puZy92oCSPLzp7LuyIgU+8xASP+AdyjoUwpI95o9SvTTjzr38nM49fLWwPkA31D6rWiy9lZw8vX4wwr0CkPe7L1cGPc8YQj5rUEk9faenvmm+RT1MeIQ9+mnBvKuWAb4Rjcc9DVgFvkUF0DzXwAg+2WDCPS0Zwzs6wcc7eOI6PQI1Ir3lUdg8jo3sPCIhrbtNyXE8dof3vKk64r2RM/y8Q5lWPEauvrwF9zS+tU1ivTa0obz2Ndw8cL9NPpSnML3+UxG+fiQBviGzg7351EM+twO3PXRcxT5O7pW+vRIvvhtgoj2rhZ+8A7yrvaJImD1XpYe+TzCVvletubxnGHA8bg/Xu13jNTutpmm+KPVePWHgzTvJA3O9YRkjvoXfDr662aw86zTiPQioXD6Us8S8+A+BPSXw87tYEWs9M5lKPffDBj2Hi2i9Oa6QPduFgz1Gzcg8kogRPVL85jui1QE/ZKFjPGZ7Dr4/JSY81kmBvX/PaTzkzJY9qE+WvsluBb4=';
export const REF3_B64 =
  'AAAAAAAAAAAAAAAAAAAAAAAAAAAAAAAAAAAAAAAAAAAAAAAAAAAAAAAAAAAAAAAAAAAAAAAAAAAAAAAAAAAAAAAAAAAAAAAAAAAAAAAAAAAAAAAAAAAAAAAAAAAAAAAAAAAAAAAAAAAAAAAAAAAAAAAAAAAAAAAAAAAAAAAAAAAAAAAAAAAAAAAAAAAAAAAAAAAAAAAAAAAAAAAAAAAAAAAAAAAAAAAAAAAAAAAAAAAAAAAAAAAAAAAAAAAAAAAAAAAAAAAAAAAAAAAAAAAAAAAAAAAAAAAAAAAAAAAAAAAAAAAAAAAAAAAAAAAAAAAAAAAAAAAAAAAAAAAAAAAAAAAAAAAAAAAAAAAAAAAAAAAAAAAAAAAAAAAAAAAAAAAAAAAAAAAAAAAAAAAAAAAAAAAAAAAAAAAAAAAAAAAAAAAAAAAAAAAAAAAAAAAAAAAAAAAAAAAAAAAAAAAAAAAAAAAAAAAAAAAAAAAAAAAAAAAAAAAAAAAAAAAAAAAAAAAAAAAAAAAAAAAAAAAAAAAAAAAAAAAAAAAAAAAAAAAAAAAAAAAAAAAAAAAAAAAAAAAAAAAAAAAAAAAAAAAAAAAAAAAAAAAAAAAAAAAAAAAAAAAAAAAAwcBAPaWkJD6TkhI/k5ISP8HAQD4AAAAAAAAAAAAAAAAAAAAAAAAAAAAAAAAAAAAAAAAAAAAAAAAAAAAAAAAAAAAAAAAAAAAAAAAAAAAAAAAAAAAAAAAAAAAAAAAAAAAAAAAAAAAAAAAAAAAAwcBAPYKBAT/+/X0//v19P/79fT/7+no/pKMjP5GQkD0AAAAAAAAAAAAAAAAAAAAAAAAAAAAAAAAAAAAAAAAAAAAAAAAAAAAAAAAAAAAAAAAAAAAAAAAAAAAAAAAAAAAAAAAAAAAAAAAAAAAAAAAAAIaFBT/+/X0//v19P/79fT/+/X0//v19P/79fT/m5WU/jYyMPgAAAAAAAAAAAAAAAAAAAAAAAAAAAAAAAAAAAAAAAAAAAAAAAAAAAAAAAAAAAAAAAAAAAAAAAAAAAAAAAAAAAAAAAAAAAAAAAAAAAADLyso+/v19P/38fD+SkRE/zczMPtfW1j7u7W0//v19P/j3dz+BgAA/oaAgPQAAAAAAAAAAAAAAAAAAAAAAAAAAAAAAAAAAAAAAAAAAAAAAAAAAAAAAAAAAAAAAAAAAAAAAAAAAAAAAAAAAAAAAAAAAtrU1P/79fT+opyc/AAAAAAAAAAAAAAAA9fR0Puzraz/+/X0//v19P6SjIz+hoKA8AAAAAAAAAAAAAAAAAAAAAAAAAAAAAAAAAAAAAAAAAAAAAAAAAAAAAAAAAAAAAAAAAAAAAAAAAAAAAAAAAAAAAAAAgD/+/X0/rawsPgAAAAAAAAAAAAAAAAAAAADp6Gg+wsFBP/79fT/+/X0/paQkP4GAgDwAAAAAAAAAAAAAAAAAAAAAAAAAAAAAAAAAAAAAAAAAAAAAAAAAAAAAAAAAAAAAAAAAAAAAAAAAAAAAAAC8uzs//v19P4GAAD4AAAAAAAAAAAAAAAAAAAAAAAAAAN3cXD7t7Gw//v19P/79fT+trKw+AAAAAAAAAAAAAAAAAAAAAAAAAAAAAAAAAAAAAAAAAAAAAAAAAAAAAAAAAAAAAAAAAAAAAAAAAAAAAAAAk5ISP/79fT+BgAA+AAAAAMnIyD6/vj4/r66uPq+urj6vrq4+lJMTP/79fT/+/X0/9/b2PgAAAAAAAAAAAAAAAAAAAAAAAAAAAAAAAAAAAAAAAAAAAAAAAAAAAAAAAAAAAAAAAAAAAAAAAAAAAAAAAL28vD7+/X0/nZycPqGgID75+Hg//v19P/79fT/+/X0//v19P/79fT/+/X0//v19P+DfXz+pqKg+8fBwPQAAAAAAAAAAAAAAAAAAAAAAAAAAAAAAAAAAAAAAAAAAAAAAAAAAAAAAAAAAAAAAAAAAAADh4GA9ubi4PsHAQD2NjAw+8fBwP/79fT/+/X0//v19P/79fT/+/X0//v19P/79fT/+/X0//v19P/X0dD+zsrI+oaAgPQAAAAAAAAAAAAAAAAAAAAAAAAAAAAAAAAAAAAAAAAAAAAAAAAAAAAAAAAAAAAAAAAAAAAAAAAAAAAAAAJeWlj6ioSE/tLMzP/79fT/+/X0//v19P/79fT/+/X0//v19P/79fT/+/X0//v19P9LRUT+trCw+AAAAAAAAAAAAAAAAAAAAAAAAAAAAAAAAAAAAAAAAAAAAAAAAAAAAAAAAAAAAAAAAAAAAAAAAAAAAAAAAAAAAAMHAQDyBgIA9gYCAPZ2cHD6ZmBg+gYCAPYGAgD2SkRE/9PNzP/79fT/+/X0/urk5P8HAQD4AAAAAAAAAAAAAAAAAAAAAAAAAAAAAAAAAAAAAAAAAAAAAAAAAAAAAAAAAAAAAAAAAAAAAoaCgPenoaD4AAAAAAAAAAAAAAAAAAAAAAAAAAAAAAAAAAAAAAAAAAOnoaD7S0VE//v19P/79fT+4tzc/AAAAAAAAAAAAAAAAAAAAAAAAAAAAAAAAAAAAAAAAAAAAAAAAAAAAAAAAAAAAAAAAm5qaPt7dXT/493c/n56ePgAAAAAAAAAAAAAAAAAAAAAAAAAAAAAAAAAAAAAAAAAA0dBQPdzbWz/+/X0/8fBwP5GQkD4AAAAAAAAAAAAAAAAAAAAAAAAAAAAAAAAAAAAAAAAAAAAAAAAAAAAAAAAAALW0tD7493c//v19P/38fD/l5GQ+AAAAAAAAAAAAAAAAAAAAAAAAAAAAAAAAAAAAAAAAAADV1FQ+/Pt7P/79fT/Avz8/AAAAAAAAAAAAAAAAAAAAAAAAAAAAAAAAAAAAAAAAAAAAAAAAAAAAAAAAAAAAAAAA6ejoPv79fT/+/X0/7exsPgAAAAAAAAAAAAAAAAAAAAAAAAAAAAAAAAAAAAAAAAAAx8bGPv38fD/+/X0/kpERPwAAAAAAAAAAAAAAAAAAAAAAAAAAAAAAAAAAAAAAAAAAAAAAAAAAAAAAAAAAAAAAAOHgYD29vDw//v19P97dXT+fnh4/mZgYPgAAAAAAAAAAAAAAAAAAAADf3t4+1NNTP/f2dj/+/X0//v19P5KRET8AAAAAAAAAAAAAAAAAAAAAAAAAAAAAAAAAAAAAAAAAAAAAAAAAAAAAAAAAAAAAAAAAAAAAwcBAPd7dXT/39nY//v19P/z7ez/6+Xk/+vl5P/r5eT/6+Xk//v19P/79fT/+/X0//v19P8nISD+ZmJg9AAAAAAAAAAAAAAAAAAAAAAAAAAAAAAAAAAAAAAAAAAAAAAAAAAAAAAAAAAAAAAAAAAAAAAAAAAAAAAAAv76+Pri3Nz/l5GQ//v19P/79fT/+/X0//v19P/79fT/+/X0/xMNDP/n4+D65uLg9AAAAAAAAAAAAAAAAAAAAAAAAAAAAAAAAAAAAAAAAAAAAAAAAAAAAAAAAAAAAAAAAAAAAAAAAAAAAAAAAAAAAAAAAAAAAAAAAwcDAPZWUFD6Ligo/lZSUPv38/D6xsLA+lZQUPuHg4DwAAAAAAAAAAAAAAAAAAAAAAAAAAAAAAAAAAAAAAAAAAAAAAAAAAAAAAAAAAAAAAAAAAAAAAAAAAAAAAAAAAAAAAAAAAAAAAAAAAAAAAAAAAAAAAAAAAAAAAAAAAAAAAAAAAAAAAAAAAAAAAAAAAAAAAAAAAAAAAAAAAAAAAAAAAAAAAAAAAAAAAAAAAAAAAAAAAAAAAAAAAAAAAAAAAAAAAAAAAAAAAAAAAAAAAAAAAAAAAAAAAAAAAAAAAAAAAAAAAAAAAAAAAAAAAAAAAAAAAAAAAAAAAAAAAAAAAAAAAAAAAAAAAAAAAAAAAAAAAAAAAAAAAAAAAAAAAAAAAAAAAAAAAAAAAAAAAAAAAAAAAAAAAAAAAAAAAAAAAAAAAAAAAAAAAAAAAAAAAAAAAAAAAAAAAAAAAAAAAAAAAAAAAAAAAAAAAAAAAAAAAAAAAAAAAAAAAAAAAAAAAAAAAAAAAAAAAAAAAAAAAAAAAAAAAAAAAAAAAAAAAAAAAAAAAAAAAAAAAAAAAAAAAAAAAAAAAAAAAAAAAAAAAAAAAAAAAAAAAAAAAAAAAAAAAAAAAAAAAAAAAAAAAAAAAAAAAAAAAAAAAAAAAAAAAAAAAAAAAAAAAAAAAAAAAAAAAA==';
export const REF7_B64 =
  'AAAAAAAAAAAAAAAAAAAAAAAAAAAAAAAAAAAAAAAAAAAAAAAAAAAAAAAAAAAAAAAAAAAAAAAAAAAAAAAAAAAAAAAAAAAAAAAAAAAAAAAAAAAAAAAAAAAAAAAAAAAAAAAAAAAAAAAAAAAAAAAAAAAAAAAAAAAAAAAAAAAAAAAAAAAAAAAAAAAAAAAAAAAAAAAAAAAAAAAAAAAAAAAAAAAAAAAAAAAAAAAAAAAAAAAAAAAAAAAAAAAAAAAAAAAAAAAAAAAAAAAAAAAAAAAAAAAAAAAAAAAAAAAAAAAAAAAAAAAAAAAAAAAAAAAAAAAAAAAAAAAAAAAAAAAAAAAAAAAAAAAAAAAAAAAAAAAAAAAAAAAAAAAAAAAAAAAAAAAAAAAAAAAAAAAAAAAAAAAAAAAAAAAAAAAAAAAAAAAAAAAAAAAAAAAAAAAAAAAAAAAAAAAAAAAAAAAAAAAAAAAAAAAAAAAAAAAAAAAAAAAAAAAAAAAAAAAAAAAAAAAAAAAAAAAAAAAAAAAAAAAAAAAAAAAAAAAAAAAAAAAAAAAAAAAAAAAAAAAAAAAAAAAAAAAAAAAAAAAAAAAAAAAAAAAAAAAAAAAAAAAAAAAAAAAAAAAAAAAAAAAAAAAAAAAAAAAAAAAAAAAAAAAAAAAAAAAAAAAAAAAAAAAAAAAAAAAAAAAAAAAAAAAAAAAAAAAAAAAAAAAAAAAAAAAAAAAAAAAAAAAAAAAAAAAAAAAAAAAAAAAAAAAAAAAAAAAAAAAAAAAAAAAAAAAAAAAAAAAAAAAAAAAAAAAAAAAAAAAAAAAAAAAAAAAAAAAAAAAAAAAAAAAAAAAAAAAAAAAAAAAAAAAAAAAAAAAAAAAAAAAAAAAAAAAAAAAAAAAAAAAAAAAAAAAAAAAAAAAAAAAAAAAAAAAAAAAAAAAAAACpqKg+urk5P6CfHz+Ylxc/8fBwPpGQED4AAAAAAAAAAAAAAAAAAAAAAAAAAAAAAAAAAAAAAAAAAAAAAAAAAAAAAAAAAAAAAAAAAAAAAAAAAAAAAAAAAAAAAAAAAAAAAAAAAAAAAAAAAAAAAAAAAAAA395eP//+fj///n4///5+P//+fj/y8XE/x8ZGP8fGRj/HxkY/x8ZGP8fGRj/HxkY/x8ZGP8fGRj+rqio/0dBQPgAAAAAAAAAAAAAAAAAAAAAAAAAAAAAAAAAAAAAAAAAAAAAAAAAAAAAAAAAAAAAAAIeGhj7l5OQ+kZCQPuXk5D6koyM/5ONjP//+fj/i4WE///5+P//+fj///n4/+/p6P+blZT///n4///5+P42MDD8AAAAAAAAAAAAAAAAAAAAAAAAAAAAAAAAAAAAAAAAAAAAAAAAAAAAAAAAAAAAAAAAAAAAAAAAAAAAAAAAAAAAAAAAAAImIiD2FhIQ+4eBgPYeGhj6HhoY+h4aGPu3sbD6pqKg97exsP//+fj/V1NQ+AAAAAAAAAAAAAAAAAAAAAAAAAAAAAAAAAAAAAAAAAAAAAAAAAAAAAAAAAAAAAAAAAAAAAAAAAAAAAAAAAAAAAAAAAAAAAAAAAAAAAAAAAAAAAAAAAAAAAAAAAAAAAAAAp6amPv79fT/S0VE/kZCQPQAAAAAAAAAAAAAAAAAAAAAAAAAAAAAAAAAAAAAAAAAAAAAAAAAAAAAAAAAAAAAAAAAAAAAAAAAAAAAAAAAAAAAAAAAAAAAAAAAAAAAAAAAAAAAAAAAAAAAAAAAAsbCwPerpaT8AAIA/p6amPgAAAAAAAAAAAAAAAAAAAAAAAAAAAAAAAAAAAAAAAAAAAAAAAAAAAAAAAAAAAAAAAAAAAAAAAAAAAAAAAAAAAAAAAAAAAAAAAAAAAAAAAAAAAAAAAAAAAAAAAAAAAAAAAIKBAT///n4/7+5uP7GwMD4AAAAAAAAAAAAAAAAAAAAAAAAAAAAAAAAAAAAAAAAAAAAAAAAAAAAAAAAAAAAAAAAAAAAAAAAAAAAAAAAAAAAAAAAAAAAAAAAAAAAAAAAAAAAAAAAAAAAAAAAAAO3sbD76+Xk///5+P/n4eD4AAAAAAAAAAAAAAAAAAAAAAAAAAAAAAAAAAAAAAAAAAAAAAAAAAAAAAAAAAAAAAAAAAAAAAAAAAAAAAAAAAAAAAAAAAAAAAAAAAAAAAAAAAAAAAAAAAAAAAAAAAAAAAACGhQU///5+P7y7Oz+hoKA8AAAAAAAAAAAAAAAAAAAAAAAAAAAAAAAAAAAAAAAAAAAAAAAAAAAAAAAAAAAAAAAAAAAAAAAAAAAAAAAAAAAAAAAAAAAAAAAAAAAAAAAAAAAAAAAAAAAAAAAAAACRkBA9zs1NP/n4eD/p6Gg+AAAAAAAAAAAAAAAAAAAAAAAAAAAAAAAAAAAAAAAAAAAAAAAAAAAAAAAAAAAAAAAAAAAAAAAAAAAAAAAAAAAAAAAAAAAAAAAAAAAAAAAAAAAAAAAAAAAAAAAAAAAAAAAA/fz8Pv/+fj+3tjY/AAAAAAAAAAAAAAAAAAAAAAAAAAAAAAAAAAAAAAAAAAAAAAAAAAAAAAAAAAAAAAAAAAAAAAAAAAAAAAAAAAAAAAAAAAAAAAAAAAAAAAAAAAAAAAAAAAAAAAAAAAAAAAAAl5aWPvz7ez/x8HA/5eRkPgAAAAAAAAAAAAAAAAAAAAAAAAAAAAAAAAAAAAAAAAAAAAAAAAAAAAAAAAAAAAAAAAAAAAAAAAAAAAAAAAAAAAAAAAAAAAAAAAAAAAAAAAAAAAAAAAAAAAAAAAAAmZiYPd7dXT///n4/p6YmPwAAAAAAAAAAAAAAAAAAAAAAAAAAAAAAAAAAAAAAAAAAAAAAAAAAAAAAAAAAAAAAAAAAAAAAAAAAAAAAAAAAAAAAAAAAAAAAAAAAAAAAAAAAAAAAAAAAAAAAAAAAwcBAPMzLSz///n4/3NtbP42MDD4AAAAAAAAAAAAAAAAAAAAAAAAAAAAAAAAAAAAAAAAAAAAAAAAAAAAAAAAAAAAAAAAAAAAAAAAAAAAAAAAAAAAAAAAAAAAAAAAAAAAAAAAAAAAAAAAAAAAAAAAAAJmYGD7//n4///5+P5uamj4AAAAAAAAAAAAAAAAAAAAAAAAAAAAAAAAAAAAAAAAAAAAAAAAAAAAAAAAAAAAAAAAAAAAAAAAAAAAAAAAAAAAAAAAAAAAAAAAAAAAAAAAAAAAAAAAAAAAAAAAAAPn4+D3h4GA///5+P+fm5j6BgIA7AAAAAAAAAAAAAAAAAAAAAAAAAAAAAAAAAAAAAAAAAAAAAAAAAAAAAAAAAAAAAAAAAAAAAAAAAAAAAAAAAAAAAAAAAAAAAAAAAAAAAAAAAAAAAAAAAAAAAAAAAACGhQU///5+P//+fj/R0FA+AAAAAAAAAAAAAAAAAAAAAAAAAAAAAAAAAAAAAAAAAAAAAAAAAAAAAAAAAAAAAAAAAAAAAAAAAAAAAAAAAAAAAAAAAAAAAAAAAAAAAAAAAAAAAAAAAAAAAAAAAAD19HQ+8/JyP//+fj///n4/0dBQPgAAAAAAAAAAAAAAAAAAAAAAAAAAAAAAAAAAAAAAAAAAAAAAAAAAAAAAAAAAAAAAAAAAAAAAAAAAAAAAAAAAAAAAAAAAAAAAAAAAAAAAAAAAAAAAAAAAAAAAAAAA8/LyPv/+fj///n4/3NtbP6GgID4AAAAAAAAAAAAAAAAAAAAAAAAAAAAAAAAAAAAAAAAAAAAAAAAAAAAAAAAAAAAAAAAAAAAAAAAAAAAAAAAAAAAAAAAAAAAAAAAAAAAAAAAAAAAAAAAAAAAAAAAAAPPy8j7//n4/0M9PP5GQkD0AAAAAAAAAAAAAAAAAAAAAAAAAAAAAAAAAAAAAAAAAAAAAAAAAAAAAAAAAAAAAAAAAAAAAAAAAAAAAAAAAAAAAAAAAAAAAAAAAAAAAAAAAAAAAAAAAAAAAAAAAAAAAAAAAAAAAAAAAAAAAAAAAAAAAAAAAAAAAAAAAAAAAAAAAAAAAAAAAAAAAAAAAAAAAAAAAAAAAAAAAAAAAAAAAAAAAAAAAAAAAAAAAAAAAAAAAAAAAAAAAAAAAAAAAAAAAAAAAAAAAAAAAAAAAAAAAAAAAAAAAAAAAAAAAAAAAAAAAAAAAAAAAAAAAAAAAAAAAAAAAAAAAAAAAAAAAAAAAAAAAAAAAAAAAAAAAAAAAAAAAAAAAAAAAAAAAAAAAAA==';
export const REF5_B64 =
  'AAAAAAAAAAAAAAAAAAAAAAAAAAAAAAAAAAAAAAAAAAAAAAAAAAAAAAAAAAAAAAAAAAAAAAAAAAAAAAAAAAAAAAAAAAAAAAAAAAAAAAAAAAAAAAAAAAAAAAAAAAAAAAAAAAAAAAAAAAAAAAAAAAAAAAAAAAAAAAAAAAAAAAAAAAAAAAAAAAAAAAAAAAAAAAAAAAAAAAAAAAAAAAAAAAAAAAAAAAAAAAAAAAAAAAAAAAAAAAAAAAAAAAAAAAAAAAAAAAAAAAAAAAAAAAAAAAAAAAAAAAAAAAAAAAAAAAAAAAAAAAAAAAAAAAAAAAAAAAAAAAAAAAAAAAAAAAAAAAAAAAAAAAAAAAAAAAAAAAAAAAAAAAAAAAAAAAAAAAAAAAAAAAAAAAAAAAAAAAAAAAAAAAAAAAAAAAAAAAAAAAAAAAAAAAAAAAAAAAAAAAAAAAAAAAAAAAAAAAAAAAAAAAAAAAAAAAAAAAAAAAAAAAAAAAAAAAAAAAAAAAAAAAAAAAAAAAAAAAAAAAAAAAAAAAAAAAAAAAAAAAAAAAAAAAAAAAAAAAAAAAAAAAAAAAAAAAAAAAAAAAAAAAAAAAAAAAAAAAAAAAAAAAAAAAAAAAAAAAAAAAAAAAAAAAAAAAAAAAAAAAAAAAAAAAAAAAAAAAAAAAAAAAAAAAAAAAAAAAAAAAAAAAAAiYiIPb28PD69vDw+vbw8PoGAgD2CgQE/q6qqPr28PD4AAAAAAAAAAAAAAAAAAAAAAAAAAAAAAAAAAAAAAAAAAAAAAAAAAAAAAAAAAAAAAAAAAAAAAAAAAAAAAAAAAAAAAAAAAAAAAACXlpY+mpkZP9rZWT/+/X0//v19P/79fT/Y11c/9/Z2P/79fT/+/X0/AAAAAAAAAAAAAAAAAAAAAAAAAAAAAAAAAAAAAAAAAAAAAAAAAAAAAAAAAAAAAAAAAAAAAAAAAAAAAAAAjYwMPo+ODj/19HQ//fx8P/79fT/+/X0//v19P/79fT/+/X0//v19P/79fT/+/X0//v19PwAAAAAAAAAAAAAAAAAAAAAAAAAAAAAAAAAAAAAAAAAAAAAAAAAAAAAAAAAAAAAAAAAAAAAAAAAAAAAAAP38fD7+/X0//v19P/79fT/+/X0//v19P/79fT/+/X0/1tVVP6uqKj+rqio/q6oqP6uqKj8AAAAAAAAAAAAAAAAAAAAAAAAAAAAAAAAAAAAAAAAAAAAAAAAAAAAAAAAAAKGgoD2FhAQ/kZCQPgAAAADl5GQ+7+5uP+TjYz/v7m4/qagoP/n4+D6Lioo+oaCgPbGwMD0AAAAAAAAAAAAAAAAAAAAAAAAAAAAAAAAAAAAAAAAAAAAAAAAAAAAAAAAAAAAAAAAAAAAAAAAAALGwMD3Pzk4//v19P52cnD4AAAAAAAAAAIGAAD4AAAAA8fDwPYGAADwAAAAAAAAAAAAAAAAAAAAAAAAAAAAAAAAAAAAAAAAAAAAAAAAAAAAAAAAAAAAAAAAAAAAAAAAAAAAAAAAAAAAAAAAAAMHAwDyysTE//v19P4WEBD+hoCA9AAAAAAAAAAAAAAAAAAAAAAAAAAAAAAAAAAAAAAAAAAAAAAAAAAAAAAAAAAAAAAAAAAAAAAAAAAAAAAAAAAAAAAAAAAAAAAAAAAAAAAAAAAAAAAAAAAAAAMHAQD2GhQU//v19P+rpaT/x8HA9AAAAAAAAAAAAAAAAAAAAAAAAAAAAAAAAAAAAAAAAAAAAAAAAAAAAAAAAAAAAAAAAAAAAAAAAAAAAAAAAAAAAAAAAAAAAAAAAAAAAAAAAAAAAAAAAAAAAAAAAAAC5uLg+/v19P+DfXz/h4OA9AAAAAAAAAAAAAAAAAAAAAAAAAAAAAAAAAAAAAAAAAAAAAAAAAAAAAAAAAAAAAAAAAAAAAAAAAAAAAAAAAAAAAAAAAAAAAAAAAAAAAAAAAAAAAAAAAAAAAAAAAAAAAAAAl5YWP/79fT+vri4/AAAAAAAAAAAAAAAAAAAAAAAAAAAAAAAAAAAAAAAAAAAAAAAAAAAAAAAAAAAAAAAAAAAAAAAAAAAAAAAAAAAAAAAAAAAAAAAAAAAAAAAAAAAAAAAAAAAAAAAAAAAAAAAAAAAAAOvqaj/+/X0/9/Z2P//+/j7FxEQ+AAAAAAAAAAAAAAAAAAAAAAAAAAAAAAAAAAAAAAAAAAAAAAAAAAAAAAAAAAAAAAAAAAAAAAAAAAAAAAAAAAAAAAAAAAAAAAAAAAAAAAAAAAAAAAAAAAAAAAAAAAAAAIA//v19P/79fT/+/X0//Pt7P5STEz+3trY+8/LyPquqqj6pqCg+qagoPquqqj7h4OA9AAAAAAAAAAAAAAAAAAAAAAAAAAAAAAAAAAAAAAAAAAAAAAAAAAAAAAAAAAAAAAAAAAAAAAAAAAAAAAAAjIsLP/79fT/+/X0//v19P/79fT/+/X0//v19P/79fT/+/X0//v19P/79fT/+/X0/6ehoP6moKD8AAAAAAAAAAAAAAAAAAAAAAAAAAAAAAAAAAAAAAAAAAAAAAAAAAAAAAAAAAAAAAAAAAAAAAAAAAMHAQDzV1FQ+29paP9/eXj/8+3s//v19P/79fT/+/X0//v19P/79fT/+/X0//v19P/79fT/9/Hw/+fj4PgAAAAAAAAAAAAAAAAAAAAAAAAAAAAAAAAAAAAAAAAAAAAAAAAAAAAAAAAAAAAAAAAAAAAAAAAAAAAAAAAAAAAAAAAAAh4aGPpGQkD7JyEg//v19P/79fT/+/X0//v19P/79fT/+/X0//v19P7CvLz8AAAAAAAAAAAAAAAAAAAAAAAAAAAAAAAAAAAAAAAAAAAAAAAAAAAAAAAAAAAAAAAAAAAAAAAAAAAAAAAAAAAAAAAAAAAAAAAAAAAAA8fDwPv79fT/6+Xk/mZgYP83MTD6lpCQ//v19P/79fT+wry8/AAAAAAAAAAAAAAAAAAAAAAAAAAAAAAAAAAAAAAAAAAAAAAAAAAAAAAAAAAAAAAAAAAAAAAAAAAAAAAAAAAAAAAAAAAAAAAAAAAAAAMnISD7+/X0//v19P/79fT+9vDw//fx8P/79fT/+/X0/lZQUPwAAAAAAAAAAAAAAAAAAAAAAAAAAAAAAAAAAAAAAAAAAAAAAAAAAAAAAAAAAAAAAAAAAAAAAAAAAAAAAAAAAAAAAAAAAAAAAAAAAAACRkBA9qKcnP/79fT/+/X0//v19P/79fT/7+no/sK8vP7GwMD0AAAAAAAAAAAAAAAAAAAAAAAAAAAAAAAAAAAAAAAAAAAAAAAAAAAAAAAAAAAAAAAAAAAAAAAAAAAAAAAAAAAAAAAAAAAAAAAAAAAAAAAAAALm4uD21tDQ/6OdnP/79fT/e3V0/gYAAPwAAAAAAAAAAAAAAAAAAAAAAAAAAAAAAAAAAAAAAAAAAAAAAAAAAAAAAAAAAAAAAAAAAAAAAAAAAAAAAAAAAAAAAAAAAAAAAAAAAAAAAAAAAAAAAAAAAAAAAAAAAAAAAALu6uj6WlRU/sbCwPQAAAAAAAAAAAAAAAAAAAAAAAAAAAAAAAAAAAAAAAAAAAAAAAAAAAAAAAAAAAAAAAAAAAAAAAAAAAAAAAAAAAAAAAAAAAAAAAAAAAAAAAAAAAAAAAAAAAAAAAAAAAAAAAAAAAAAAAAAAAAAAAAAAAAAAAAAAAAAAAAAAAAAAAAAAAAAAAAAAAAAAAAAAAAAAAAAAAAAAAAAAAAAAAAAAAAAAAAAAAAAAAAAAAAAAAAAAAAAAAAAAAAAAAAAAAAAAAAAAAAAAAAAAAAAAAAAAAAAAAAAAAAAAAAAAAAAAAAAAAAAAAAAAAAAAAAAAAAAAAAAAAAAAAAAAAAAAAAAAAAAAAAAAAAAAAAAAAAAAAAAAAAAAAAAAAAAAAAAAAAAAAAAAAAAAAAAAAAAAAAAAAAAAAAAAAAAAAAAAAAAAAAAAAAAAAAAAAAAAAAAAAAAAAAAAAAAAAAAAAAAAAAAAAAAAAAAAAAAAAAAAAAAAAAAAAAAAAAAAAAAAAAAAAAAAAAAAAAAAAAAAAAAAAAAAAAAAAAAAAAAAAAAAAAAAAAAAAAAAAAAAAAAAAAAAAAAAAAAAAAAAAAAAAAAAAAAAAAAAAAAAAAAAAAAAAAAAAAAAAAAAAAAAAAAAAAAAAAAAAAAAAAAAAAAAAAAAAA==';
export const REF8_B64 =
  'AAAAAAAAAAAAAAAAAAAAAAAAAAAAAAAAAAAAAAAAAAAAAAAAAAAAAAAAAAAAAAAAAAAAAAAAAAAAAAAAAAAAAAAAAAAAAAAAAAAAAAAAAAAAAAAAAAAAAAAAAAAAAAAAAAAAAAAAAAAAAAAAAAAAAAAAAAAAAAAAAAAAAAAAAAAAAAAAAAAAAAAAAAAAAAAAAAAAAAAAAAAAAAAAAAAAAAAAAAAAAAAAAAAAAAAAAAAAAAAAAAAAAAAAAAAAAAAAAAAAAAAAAAAAAAAAAAAAAAAAAAAAAAAAAAAAAAAAAAAAAAAAAAAAAAAAAAAAAAAAAAAAAAAAAAAAAAAAAAAAAAAAAAAAAAAAAAAAAAAAAAAAAAAAAAAAAAAAAAAAAAAAAAAAAAAAAAAAAAAAAAAAAAAAAAAAAAAAAAAAAAAAAAAAAAAAAAAAAAAAAAAAAAAAAAAAAAAAAAAAAAAAAAAAAAAAAAAAAAAAAAAAAAAAAAAAAAAAAAAAAAAAAAAAAAAAAAAAAAAAAAAAAAAAAAAAAAAAAAAAAAAAAAAAAAAAAAAAAAAAAAAAAAAAAAAAAAAAAAAAAAAAAAAAAAAAAAAAAAAAAAAAAAAAAAAAAAAAAAAAAAAAAAAAAAAAAAAAAAAAAAAAAAAAAAAAAAAAAAAAAAAAAAAAAAAAAAAAAAAAAAAAAAAAAAAAAAAAAAAAAAAAAAAAAAAAAAAAAAAAAAAAAAAAAAAAAAAAAAAAAAAAAAAAAAAAAAAAAAAAAAAAAAAAAAAAAAAAAAAAAAAAAAAAAAAAAAAAAAAAAAAAAAAAAAAAAAAArawsPr28PD69vDw+AAAAAAAAAAAAAAAAAAAAAAAAAAAAAAAAAAAAAAAAAAAAAAAAAAAAAAAAAAAAAAAAAAAAAAAAAAAAAAAAAAAAAAAAAAAAAAAAAAAAAAAAAAAAAAAAAAAAAAAAAACRkBA92djYPvr5eT/+/X0//v19P9HQUD/Qz08/0M9PP9DPTz+WlRU/g4KCPtHQUD0AAAAAAAAAAAAAAAAAAAAAAAAAAAAAAAAAAAAAAAAAAAAAAAAAAAAAAAAAAAAAAAAAAAAAAAAAAAAAAACRkBA9ubg4P//+fj/+/X0//v19P/79fT///n4//v19P/79fT/+/X0///5+P/79fT/W1VU/ycjIPQAAAAAAAAAAAAAAAAAAAAAAAAAAAAAAAAAAAAAAAAAAAAAAAAAAAAAAAAAAAAAAAAAAAADd3Fw+zMtLP//+fj///n4/yMdHP//+/j7//v4+8fBwPru6uj6pqKg+iYiIPpiXFz/f3l4///5+P6KhIT8AAAAAAAAAAAAAAAAAAAAAAAAAAAAAAAAAAAAAAAAAAAAAAAAAAAAAAAAAAAAAAAAAAAAAi4oKP/79fT/+/X0/yMdHP5mYmD0AAAAAAAAAAAAAAAAAAAAAAAAAAAAAAAAAAAAAnJsbP/79fT/U01M/AAAAAAAAAAAAAAAAAAAAAAAAAAAAAAAAAAAAAAAAAAAAAAAAAAAAAAAAAAAAAAAAAAAAAIuKCj/+/X0//v19P4mIiD0AAAAAAAAAAAAAAAAAAAAAAAAAAAAAAAAAAAAAlZSUPvLxcT/+/X0/1NNTPwAAAAAAAAAAAAAAAAAAAAAAAAAAAAAAAAAAAAAAAAAAAAAAAAAAAAAAAAAAAAAAAAAAAADT0tI+/v19P/79fT/NzMw+AAAAAAAAAAAAAAAAAAAAAAAAAAAAAAAAiYgIPublZT/+/X0//v19P6GgID8AAAAAAAAAAAAAAAAAAAAAAAAAAAAAAAAAAAAAAAAAAAAAAAAAAAAAAAAAAAAAAAAAAAAAAAAAAJaVFT///n4/5uVlP6GgID4AAAAAAAAAAAAAAACZmBg+mpkZP//+fj///n4///5+P7W0ND/JyMg9AAAAAAAAAAAAAAAAAAAAAAAAAAAAAAAAAAAAAAAAAAAAAAAAAAAAAAAAAAAAAAAAAAAAAAAAAACZmJg9x8ZGP//+fj/Qz08/kZAQPYmICD6RkJA+7OtrP/79fT/+/X0/4eBgP4yLCz/R0FA9AAAAAAAAAAAAAAAAAAAAAAAAAAAAAAAAAAAAAAAAAAAAAAAAAAAAAAAAAAAAAAAAAAAAAAAAAAAAAAAAAAAAAImIiD3U01M//v19P9jXVz/x8HA///5+P/79fT/r6mo/gYAAP4mIiD0AAAAAAAAAAAAAAAAAAAAAAAAAAAAAAAAAAAAAAAAAAAAAAAAAAAAAAAAAAAAAAAAAAAAAAAAAAAAAAAAAAAAAAAAAAAAAAADNzMw+5uVlP/79fT/+/X0//v19P+XkZD+bmpo+0dBQPQAAAAAAAAAAAAAAAAAAAAAAAAAAAAAAAAAAAAAAAAAAAAAAAAAAAAAAAAAAAAAAAAAAAAAAAAAAAAAAAAAAAAAAAAAAjYyMPquqKj///n4///5+P//+fj///n4///5+P//+fj/v7u4+AAAAAAAAAAAAAAAAAAAAAAAAAAAAAAAAAAAAAAAAAAAAAAAAAAAAAAAAAAAAAAAAAAAAAAAAAAAAAAAAAAAAANHQ0D2DggI/5+ZmP//+fj/+/X0//v19P7q5OT/n5uY+gYCAPtTTUz/+/X0/+fh4P6moqD0AAAAAAAAAAAAAAAAAAAAAAAAAAAAAAAAAAAAAAAAAAAAAAAAAAAAAAAAAAAAAAAAAAAAAAAAAAKemJj/p6Gg//v19P/79fT/493c/o6IiP7m4OD7R0FA94eDgPLe2tj729XU//v19P//+fj/h4GA+AAAAAAAAAAAAAAAAAAAAAAAAAAAAAAAAAAAAAAAAAAAAAAAAAAAAAAAAAAAAAAAAAAAAAAAAAACBgAA//v19P/79fT/+/X0/09JSP7u6uj7//v4+oJ8fP83MTD/+/X0//v19P/79fT/l5GQ/8fBwPQAAAAAAAAAAAAAAAAAAAAAAAAAAAAAAAAAAAAAAAAAAAAAAAAAAAAAAAAAAAAAAAAAAAAAAAAAAAAAAAIeGBj/y8XE///5+PwAAgD///n4///5+P//+fj///n4///5+P//+fj/l5GQ/iYgIPgAAAAAAAAAAAAAAAAAAAAAAAAAAAAAAAAAAAAAAAAAAAAAAAAAAAAAAAAAAAAAAAAAAAAAAAAAAAAAAAAAAAAAAAAAA2djYPefm5j6NjAw/z85OP8/OTj/Pzk4/0M9PP8/OTj/39vY+8fBwPQAAAAAAAAAAAAAAAAAAAAAAAAAAAAAAAAAAAAAAAAAAAAAAAAAAAAAAAAAAAAAAAAAAAAAAAAAAAAAAAAAAAAAAAAAAAAAAAAAAAAAAAAAAAAAAAAAAAAAAAAAAAAAAAAAAAAAAAAAAAAAAAAAAAAAAAAAAAAAAAAAAAAAAAAAAAAAAAAAAAAAAAAAAAAAAAAAAAAAAAAAAAAAAAAAAAAAAAAAAAAAAAAAAAAAAAAAAAAAAAAAAAAAAAAAAAAAAAAAAAAAAAAAAAAAAAAAAAAAAAAAAAAAAAAAAAAAAAAAAAAAAAAAAAAAAAAAAAAAAAAAAAAAAAAAAAAAAAAAAAAAAAAAAAAAAAAAAAAAAAAAAAAAAAAAAAAAAAAAAAAAAAAAAAAAAAAAAAAAAAAAAAAAAAAAAAAAAAAAAAAAAAAAAAAAAAAAAAAAAAAAAAAAAAAAAAAAAAAAAAAAAAAAAAAAAAAAAAAAAAAAAAAAAAAAAAAAAAAAAAAAAAAAAAAAAAAAAAAAAAAAAAAAAAAAAAAAAAAAAAAAAAAAAAAAAAAAAAAAAAAAAAAAAAAAAAAAAAAAAAAAAAAAAAAAAAAAAAAAAAAAAAAAAAAAAAAAAAAAAAAAAAAAAAAAAAAAAAAAAAAAAAAAAAAAAAAAAAAAAAAAAAAAAAAAAAAAAAAAAAAAAAAAAAAAAAAAAAAAAAAAAAAAAAAAAAAAAAAAAAAAAAAAAAAAAAAAAAAAAAAAAAAAAAAAAAAAAAAAAAAAAAAAAAAAAAAAAAAAAAAAAAAAAAAAAAAAAAAAAAAAAAAAAAAAAAAAAAAAAAAAAAAAAAAAAAAAAAAAAAAAAAAAAAAAAAAAAAAAAAAAAAAAAAAAAAAAAAAAAAAAAAAAAAAAAAAAAAAAAAAAAAAAAAAAAAAAAAAAAAAAAAAAAAAAAAAAAAAAAAAAAAAAAAAAAAAAAAAAAAA==';
